#ifndef TINYML_HAR_MODEL_DATA_H_
#define TINYML_HAR_MODEL_DATA_H_

// TinyML HAR deployment model for Arduino evidence collection.
// Model: M4 session3+4 gravity/orientation 10-channel DS-CNN, INT8 PTQ live-test candidate.
// This is not claimed as a fully scientifically validated final model.
// Check the milestone report for remaining held-out validation failure modes.

#include <cstdint>

#if defined(ARDUINO_ARCH_AVR)
#include <avr/pgmspace.h>
#define TINYML_PROGMEM PROGMEM
#else
#define TINYML_PROGMEM
#endif

constexpr int kWindowSize = 128;
constexpr int kWindowStride = 64;
constexpr int kStride = kWindowStride;
constexpr int kChannelCount = 10;
constexpr int kClassCount = 6;
constexpr int kTensorArenaSize = 73728;
constexpr float kGyroDegToRad = 0.01745329252f;
constexpr float kInputScale = 0.14777413f;
constexpr int kInputZeroPoint = 11;
constexpr float kOutputScale = 0.00390625f;
constexpr int kOutputZeroPoint = -128;
const char* const kNormalizationSource = "UCI-HAR train + Arduino V2/V2.1 + old M3 raw replay validation + standardized sessions 3 and 4; standardized session 1 and live Serial logs excluded";

constexpr float kFeatureMean[kChannelCount] = {0.129321441f, -0.105080456f, 0.202021509f, 0.0311136506f, -0.00528732827f, 0.00574927917f, 0.124661759f, -0.10146758f, 0.203623131f, 1.01146054f};
constexpr float kFeatureStd[kChannelCount] = {0.821689963f, 0.443858445f, 0.396127731f, 0.609612763f, 0.374742836f, 0.343149483f, 0.782822907f, 0.418397248f, 0.379466295f, 0.0202585123f};
const char* const kClassNames[kClassCount] = {"WALKING", "WALKING_UPSTAIRS", "WALKING_DOWNSTAIRS", "SITTING", "STANDING", "LAYING"};

alignas(8) const unsigned char g_tinyml_har_model[] TINYML_PROGMEM = {
  0x20, 0x00, 0x00, 0x00, 0x54, 0x46, 0x4c, 0x33, 0x00, 0x00, 0x00, 0x00,
  0x14, 0x00, 0x20, 0x00, 0x1c, 0x00, 0x18, 0x00, 0x14, 0x00, 0x10, 0x00,
  0x0c, 0x00, 0x00, 0x00, 0x08, 0x00, 0x04, 0x00, 0x14, 0x00, 0x00, 0x00,
  0x1c, 0x00, 0x00, 0x00, 0x1c, 0x00, 0x00, 0x00, 0x9c, 0x00, 0x00, 0x00,
  0x78, 0x0b, 0x00, 0x00, 0x88, 0x0b, 0x00, 0x00, 0xe4, 0x27, 0x00, 0x00,
  0x03, 0x00, 0x00, 0x00, 0x00, 0x00, 0x00, 0x00, 0x03, 0x00, 0x00, 0x00,
  0x5c, 0x00, 0x00, 0x00, 0x2c, 0x00, 0x00, 0x00, 0x04, 0x00, 0x00, 0x00,
  0xb8, 0xff, 0xff, 0xff, 0x1e, 0x00, 0x00, 0x00, 0x04, 0x00, 0x00, 0x00,
  0x13, 0x00, 0x00, 0x00, 0x43, 0x4f, 0x4e, 0x56, 0x45, 0x52, 0x53, 0x49,
  0x4f, 0x4e, 0x5f, 0x4d, 0x45, 0x54, 0x41, 0x44, 0x41, 0x54, 0x41, 0x00,
  0xdc, 0xff, 0xff, 0xff, 0x1d, 0x00, 0x00, 0x00, 0x04, 0x00, 0x00, 0x00,
  0x13, 0x00, 0x00, 0x00, 0x6d, 0x69, 0x6e, 0x5f, 0x72, 0x75, 0x6e, 0x74,
  0x69, 0x6d, 0x65, 0x5f, 0x76, 0x65, 0x72, 0x73, 0x69, 0x6f, 0x6e, 0x00,
  0x08, 0x00, 0x0c, 0x00, 0x08, 0x00, 0x04, 0x00, 0x08, 0x00, 0x00, 0x00,
  0x1c, 0x00, 0x00, 0x00, 0x04, 0x00, 0x00, 0x00, 0x13, 0x00, 0x00, 0x00,
  0x6d, 0x69, 0x6e, 0x5f, 0x72, 0x75, 0x6e, 0x74, 0x69, 0x6d, 0x65, 0x5f,
  0x76, 0x65, 0x72, 0x73, 0x69, 0x6f, 0x6e, 0x00, 0x1f, 0x00, 0x00, 0x00,
  0xd8, 0x0a, 0x00, 0x00, 0xd0, 0x0a, 0x00, 0x00, 0xb0, 0x0a, 0x00, 0x00,
  0x94, 0x0a, 0x00, 0x00, 0x80, 0x0a, 0x00, 0x00, 0x58, 0x0a, 0x00, 0x00,
  0x88, 0x09, 0x00, 0x00, 0xf8, 0x08, 0x00, 0x00, 0xe8, 0x05, 0x00, 0x00,
  0x78, 0x05, 0x00, 0x00, 0xf0, 0x04, 0x00, 0x00, 0x80, 0x04, 0x00, 0x00,
  0x50, 0x03, 0x00, 0x00, 0x10, 0x03, 0x00, 0x00, 0xc4, 0x02, 0x00, 0x00,
  0x84, 0x02, 0x00, 0x00, 0x0c, 0x01, 0x00, 0x00, 0x04, 0x01, 0x00, 0x00,
  0xfc, 0x00, 0x00, 0x00, 0xf4, 0x00, 0x00, 0x00, 0xec, 0x00, 0x00, 0x00,
  0xe4, 0x00, 0x00, 0x00, 0xdc, 0x00, 0x00, 0x00, 0xd4, 0x00, 0x00, 0x00,
  0xcc, 0x00, 0x00, 0x00, 0xc4, 0x00, 0x00, 0x00, 0xbc, 0x00, 0x00, 0x00,
  0xb4, 0x00, 0x00, 0x00, 0x94, 0x00, 0x00, 0x00, 0x74, 0x00, 0x00, 0x00,
  0x04, 0x00, 0x00, 0x00, 0x06, 0xf5, 0xff, 0xff, 0x04, 0x00, 0x00, 0x00,
  0x60, 0x00, 0x00, 0x00, 0x0c, 0x00, 0x00, 0x00, 0x08, 0x00, 0x0e, 0x00,
  0x08, 0x00, 0x04, 0x00, 0x08, 0x00, 0x00, 0x00, 0x10, 0x00, 0x00, 0x00,
  0x28, 0x00, 0x00, 0x00, 0x00, 0x00, 0x06, 0x00, 0x08, 0x00, 0x04, 0x00,
  0x06, 0x00, 0x00, 0x00, 0x04, 0x00, 0x00, 0x00, 0x01, 0x00, 0x00, 0x00,
  0xeb, 0x03, 0x00, 0x00, 0x0c, 0x00, 0x18, 0x00, 0x14, 0x00, 0x10, 0x00,
  0x0c, 0x00, 0x04, 0x00, 0x0c, 0x00, 0x00, 0x00, 0xba, 0xa6, 0x92, 0xc4,
  0xe2, 0x6a, 0x22, 0xaa, 0x03, 0x00, 0x00, 0x00, 0x02, 0x00, 0x00, 0x00,
  0x04, 0x00, 0x00, 0x00, 0x06, 0x00, 0x00, 0x00, 0x32, 0x2e, 0x31, 0x38,
  0x2e, 0x30, 0x00, 0x00, 0x72, 0xf5, 0xff, 0xff, 0x04, 0x00, 0x00, 0x00,
  0x10, 0x00, 0x00, 0x00, 0x00, 0x00, 0x00, 0x00, 0x00, 0x00, 0x00, 0x00,
  0x00, 0x00, 0x00, 0x00, 0x00, 0x00, 0x00, 0x00, 0x8e, 0xf5, 0xff, 0xff,
  0x04, 0x00, 0x00, 0x00, 0x10, 0x00, 0x00, 0x00, 0x31, 0x2e, 0x31, 0x34,
  0x2e, 0x30, 0x00, 0x00, 0x00, 0x00, 0x00, 0x00, 0x00, 0x00, 0x00, 0x00,
  0x70, 0xda, 0xff, 0xff, 0x74, 0xda, 0xff, 0xff, 0x78, 0xda, 0xff, 0xff,
  0x7c, 0xda, 0xff, 0xff, 0x80, 0xda, 0xff, 0xff, 0x84, 0xda, 0xff, 0xff,
  0x88, 0xda, 0xff, 0xff, 0x8c, 0xda, 0xff, 0xff, 0x90, 0xda, 0xff, 0xff,
  0x94, 0xda, 0xff, 0xff, 0x98, 0xda, 0xff, 0xff, 0xd6, 0xf5, 0xff, 0xff,
  0x04, 0x00, 0x00, 0x00, 0x68, 0x01, 0x00, 0x00, 0x69, 0x27, 0xe2, 0x41,
  0x2f, 0xba, 0x27, 0xe1, 0xfc, 0x00, 0x39, 0xb8, 0xe8, 0xda, 0xac, 0xf9,
  0x9e, 0xe3, 0x11, 0x02, 0x7f, 0x90, 0xbf, 0x27, 0x52, 0xce, 0x1b, 0x28,
  0x70, 0xfd, 0x5b, 0x38, 0x12, 0x16, 0xbb, 0x1e, 0xfc, 0xc4, 0x3b, 0xe8,
  0x63, 0x35, 0x22, 0xd7, 0xe2, 0x3a, 0xd4, 0x09, 0xcc, 0x1e, 0x7f, 0xfb,
  0x38, 0xeb, 0xc9, 0xf3, 0x15, 0x24, 0x19, 0xf4, 0xe2, 0xf9, 0x3a, 0x25,
  0xf7, 0xb9, 0x20, 0xc6, 0xf9, 0x00, 0x3f, 0xff, 0xcf, 0xe2, 0xf2, 0x91,
  0x1a, 0x29, 0x2d, 0x11, 0xea, 0xca, 0x21, 0x10, 0x03, 0x81, 0xfb, 0x0c,
  0xe1, 0xee, 0xe7, 0x34, 0x53, 0xec, 0x5b, 0xf6, 0x04, 0xab, 0xc2, 0xc2,
  0x78, 0xda, 0x35, 0x81, 0xe3, 0x91, 0x05, 0x42, 0x46, 0x28, 0xf7, 0xf4,
  0x14, 0xe1, 0x9d, 0xef, 0x60, 0xd5, 0x42, 0x16, 0x06, 0xca, 0xe6, 0x18,
  0x88, 0x6c, 0x39, 0x13, 0x48, 0xfb, 0x0d, 0x25, 0xcb, 0x3a, 0xe4, 0xf4,
  0xf3, 0xf9, 0x39, 0x03, 0xe7, 0x3d, 0xd8, 0x20, 0xad, 0x7f, 0xee, 0x34,
  0xd8, 0x10, 0x73, 0x48, 0xbd, 0x4d, 0x57, 0xc9, 0xe2, 0x7e, 0xf7, 0x16,
  0x06, 0x59, 0xcf, 0x39, 0x2e, 0xe1, 0x38, 0x3e, 0xc4, 0xf9, 0x56, 0x7f,
  0x14, 0xde, 0xae, 0x3e, 0x0f, 0xd7, 0xff, 0xf4, 0xf9, 0x67, 0x46, 0x7f,
  0xe6, 0xac, 0xe4, 0x3f, 0x0a, 0x1b, 0xe7, 0x51, 0xbf, 0x70, 0x28, 0x32,
  0x00, 0xf7, 0xd1, 0xe2, 0xfa, 0xea, 0x04, 0x7e, 0x2b, 0x91, 0xc9, 0xd7,
  0xf3, 0x56, 0xe7, 0xde, 0x81, 0xcf, 0x5e, 0x4a, 0x04, 0xb6, 0xc6, 0x07,
  0xb5, 0xf5, 0xe5, 0xe6, 0xd7, 0x4e, 0x72, 0xde, 0xd0, 0xea, 0x04, 0x36,
  0x35, 0x06, 0xe9, 0x9b, 0xef, 0x0f, 0x5d, 0x20, 0xc0, 0x56, 0x43, 0xc2,
  0xf4, 0x7f, 0x51, 0x03, 0xc0, 0x04, 0x50, 0xd0, 0x47, 0x72, 0x38, 0x56,
  0x09, 0xef, 0x57, 0xfa, 0x29, 0x37, 0xa1, 0x29, 0x64, 0x9e, 0xd1, 0xad,
  0xb7, 0x12, 0x08, 0x07, 0xf5, 0xbe, 0xb9, 0x5e, 0x0b, 0xcf, 0x22, 0xf8,
  0x7f, 0xdd, 0x55, 0xf5, 0x2d, 0xf5, 0x27, 0xe4, 0x79, 0x06, 0x49, 0xe8,
  0xd7, 0xd0, 0xb1, 0x16, 0x2f, 0xb5, 0xd8, 0xfd, 0x7f, 0xbe, 0xe8, 0x4e,
  0x04, 0x6f, 0x34, 0xb4, 0xec, 0x0a, 0xda, 0x68, 0xb9, 0xd3, 0x10, 0x32,
  0xf9, 0x92, 0x5e, 0xd9, 0x6a, 0x8f, 0xd6, 0x09, 0xdc, 0x18, 0xa2, 0xb1,
  0xdf, 0x1d, 0xe0, 0xf7, 0xef, 0xf4, 0xdc, 0xfa, 0x55, 0x15, 0x66, 0xfd,
  0xfd, 0x3f, 0x4c, 0x09, 0xa7, 0xd2, 0x7f, 0x9d, 0xb3, 0x19, 0xd9, 0xbb,
  0xe1, 0x8a, 0x1d, 0xbc, 0x23, 0x1f, 0xec, 0xf2, 0x4a, 0xf7, 0xff, 0xff,
  0x04, 0x00, 0x00, 0x00, 0x30, 0x00, 0x00, 0x00, 0x43, 0xff, 0xff, 0xff,
  0xc6, 0xfd, 0xff, 0xff, 0xb1, 0xfe, 0xff, 0xff, 0x12, 0x00, 0x00, 0x00,
  0x92, 0xff, 0xff, 0xff, 0xc5, 0xfe, 0xff, 0xff, 0xbc, 0xfe, 0xff, 0xff,
  0x95, 0x00, 0x00, 0x00, 0x5a, 0x00, 0x00, 0x00, 0x23, 0xfe, 0xff, 0xff,
  0xe8, 0xfd, 0xff, 0xff, 0xab, 0x00, 0x00, 0x00, 0x86, 0xf7, 0xff, 0xff,
  0x04, 0x00, 0x00, 0x00, 0x3c, 0x00, 0x00, 0x00, 0xa9, 0x91, 0x75, 0xd7,
  0x73, 0x50, 0xd8, 0xb2, 0x81, 0x29, 0xea, 0x40, 0xd9, 0x5e, 0x2f, 0x74,
  0x84, 0x41, 0xfa, 0xb7, 0x11, 0x07, 0x81, 0xfd, 0xce, 0xc5, 0xc2, 0x74,
  0x68, 0xf2, 0x2b, 0xfb, 0x11, 0x81, 0x8d, 0x7f, 0xd2, 0x81, 0x22, 0x31,
  0x87, 0xc5, 0x15, 0x13, 0xa7, 0x8f, 0xbd, 0x6a, 0x7f, 0xd2, 0x7f, 0x7f,
  0x81, 0x7f, 0x81, 0x7f, 0xf3, 0xfe, 0x47, 0x37, 0xce, 0xf7, 0xff, 0xff,
  0x04, 0x00, 0x00, 0x00, 0x30, 0x00, 0x00, 0x00, 0x00, 0x00, 0x00, 0x00,
  0x00, 0x00, 0x00, 0x00, 0x00, 0x00, 0x00, 0x00, 0x00, 0x00, 0x00, 0x00,
  0x00, 0x00, 0x00, 0x00, 0x00, 0x00, 0x00, 0x00, 0x00, 0x00, 0x00, 0x00,
  0x00, 0x00, 0x00, 0x00, 0x00, 0x00, 0x00, 0x00, 0x00, 0x00, 0x00, 0x00,
  0x00, 0x00, 0x00, 0x00, 0x00, 0x00, 0x00, 0x00, 0x0a, 0xf8, 0xff, 0xff,
  0x04, 0x00, 0x00, 0x00, 0x20, 0x01, 0x00, 0x00, 0xdc, 0x1e, 0x81, 0x98,
  0xfd, 0x3e, 0x1a, 0xbd, 0x16, 0x29, 0xf0, 0x14, 0x05, 0xa7, 0x81, 0xd7,
  0x08, 0x3c, 0x6c, 0xdc, 0x9c, 0x8d, 0xd5, 0xbd, 0x81, 0xde, 0xcd, 0xa8,
  0x1f, 0x82, 0xe4, 0xfe, 0xdd, 0x02, 0x62, 0x44, 0xec, 0xd5, 0xb8, 0x7f,
  0x95, 0xa0, 0x66, 0x0f, 0x9c, 0xd8, 0x9a, 0x5a, 0xe7, 0x34, 0x33, 0xdd,
  0x19, 0x94, 0xe2, 0x37, 0xdf, 0x81, 0x15, 0x5d, 0x18, 0x7f, 0x5f, 0xb8,
  0x8a, 0x01, 0xe8, 0xe5, 0x12, 0xd8, 0x61, 0x3a, 0x00, 0xda, 0xac, 0x34,
  0x05, 0xa8, 0x01, 0x81, 0xd2, 0xf6, 0x92, 0x87, 0x81, 0x44, 0xd1, 0x25,
  0xbf, 0x2c, 0x35, 0x0b, 0x3f, 0xa1, 0x1e, 0xd7, 0x24, 0x92, 0xd5, 0x53,
  0xc7, 0x32, 0xfd, 0x42, 0x9d, 0xda, 0x7f, 0xfe, 0xe5, 0xe7, 0x87, 0x85,
  0xc6, 0xb9, 0x1d, 0xa6, 0x81, 0x2d, 0xd7, 0xa0, 0x2b, 0x81, 0x09, 0xe1,
  0x56, 0x14, 0x1d, 0xac, 0xa1, 0x3b, 0xf2, 0x18, 0xa2, 0x9b, 0xc3, 0x3f,
  0x34, 0x2c, 0x9d, 0x81, 0x2a, 0x98, 0xe6, 0xd4, 0xdc, 0xe9, 0xfb, 0xde,
  0x06, 0xba, 0x09, 0x81, 0x41, 0xb8, 0x21, 0x5e, 0x74, 0x0f, 0x31, 0xd8,
  0xb6, 0xcd, 0x39, 0x5a, 0x7f, 0xad, 0x20, 0x03, 0x7f, 0x13, 0x0b, 0xd7,
  0x3e, 0xbc, 0xda, 0x22, 0xbe, 0x34, 0xf2, 0x22, 0xe2, 0x40, 0x6a, 0x9e,
  0x46, 0x7f, 0xd2, 0xfd, 0x7b, 0x71, 0xd7, 0x9b, 0x5f, 0xd4, 0x26, 0xb4,
  0xd2, 0xea, 0x7f, 0x68, 0xdd, 0xb2, 0x1a, 0x2e, 0x42, 0x19, 0x08, 0xe0,
  0x46, 0x02, 0x21, 0xd5, 0x0b, 0x1d, 0x7f, 0xd5, 0xc2, 0x1e, 0xe6, 0xfc,
  0x03, 0x81, 0xcc, 0x58, 0x22, 0xe5, 0x4f, 0xc8, 0xe8, 0x0b, 0xfc, 0x55,
  0x17, 0x7f, 0xae, 0x31, 0xa2, 0x52, 0x3f, 0xb3, 0x1c, 0xdd, 0xed, 0x4a,
  0xb9, 0x07, 0x9e, 0xf1, 0xf8, 0x0c, 0x7f, 0x27, 0x54, 0xdb, 0x81, 0xfa,
  0x6e, 0x19, 0xef, 0x3b, 0xd6, 0xec, 0x1e, 0xa9, 0x7f, 0x2a, 0x07, 0xd3,
  0x20, 0x0a, 0xdb, 0x12, 0x2f, 0xed, 0xcc, 0xbb, 0x30, 0xd9, 0xf4, 0x10,
  0x1b, 0x9a, 0xef, 0x09, 0x1b, 0x81, 0x1b, 0xcf, 0x36, 0xf9, 0xff, 0xff,
  0x04, 0x00, 0x00, 0x00, 0x60, 0x00, 0x00, 0x00, 0xd4, 0x03, 0x00, 0x00,
  0xbf, 0x01, 0x00, 0x00, 0x56, 0x01, 0x00, 0x00, 0xf1, 0xf5, 0xff, 0xff,
  0xb0, 0xfb, 0xff, 0xff, 0x4b, 0x02, 0x00, 0x00, 0x24, 0x02, 0x00, 0x00,
  0x43, 0xfd, 0xff, 0xff, 0x8d, 0xfb, 0xff, 0xff, 0xb3, 0x04, 0x00, 0x00,
  0x2b, 0xff, 0xff, 0xff, 0x37, 0xfa, 0xff, 0xff, 0x11, 0xfe, 0xff, 0xff,
  0x6a, 0x02, 0x00, 0x00, 0x18, 0x04, 0x00, 0x00, 0x0f, 0x04, 0x00, 0x00,
  0xdd, 0xff, 0xff, 0xff, 0xbe, 0x06, 0x00, 0x00, 0xff, 0x03, 0x00, 0x00,
  0x87, 0xfd, 0xff, 0xff, 0x05, 0xfc, 0xff, 0xff, 0xe8, 0x06, 0x00, 0x00,
  0xd4, 0x05, 0x00, 0x00, 0x0d, 0x02, 0x00, 0x00, 0xa2, 0xf9, 0xff, 0xff,
  0x04, 0x00, 0x00, 0x00, 0x78, 0x00, 0x00, 0x00, 0x7f, 0x03, 0x46, 0x95,
  0xc6, 0x81, 0xbe, 0x6a, 0x35, 0x7f, 0x8d, 0x99, 0x7f, 0x33, 0x9a, 0x81,
  0x4b, 0xe5, 0xf0, 0x62, 0x8c, 0x83, 0xbe, 0x14, 0x33, 0xdc, 0x78, 0xfd,
  0xbe, 0x93, 0x97, 0x30, 0x62, 0xea, 0xeb, 0xac, 0x6f, 0x7f, 0xc4, 0xab,
  0x32, 0xaf, 0xd7, 0x4c, 0xdf, 0x81, 0xdb, 0x63, 0x3b, 0x89, 0x7f, 0xdc,
  0xda, 0xa4, 0xd4, 0x7a, 0x7f, 0x28, 0x81, 0xaa, 0xcc, 0x0c, 0xc6, 0x87,
  0x7a, 0x81, 0x81, 0xab, 0x81, 0xa3, 0x08, 0x7f, 0x0e, 0x81, 0x40, 0x81,
  0xd3, 0x9e, 0xc9, 0x4d, 0x1e, 0x38, 0xc5, 0xd3, 0xd1, 0x54, 0x81, 0xab,
  0x44, 0x45, 0x8b, 0xa1, 0xb1, 0xc8, 0x81, 0xe6, 0x67, 0xd7, 0x64, 0xb5,
  0x81, 0xc9, 0x81, 0x7f, 0x62, 0x69, 0xa8, 0x81, 0x89, 0x33, 0xab, 0xbc,
  0x7f, 0xc1, 0xb5, 0x81, 0x8d, 0x04, 0xda, 0x41, 0x26, 0xfa, 0xff, 0xff,
  0x04, 0x00, 0x00, 0x00, 0x60, 0x00, 0x00, 0x00, 0x00, 0x00, 0x00, 0x00,
  0x00, 0x00, 0x00, 0x00, 0x00, 0x00, 0x00, 0x00, 0x00, 0x00, 0x00, 0x00,
  0x00, 0x00, 0x00, 0x00, 0x00, 0x00, 0x00, 0x00, 0x00, 0x00, 0x00, 0x00,
  0x00, 0x00, 0x00, 0x00, 0x00, 0x00, 0x00, 0x00, 0x00, 0x00, 0x00, 0x00,
  0x00, 0x00, 0x00, 0x00, 0x00, 0x00, 0x00, 0x00, 0x00, 0x00, 0x00, 0x00,
  0x00, 0x00, 0x00, 0x00, 0x00, 0x00, 0x00, 0x00, 0x00, 0x00, 0x00, 0x00,
  0x00, 0x00, 0x00, 0x00, 0x00, 0x00, 0x00, 0x00, 0x00, 0x00, 0x00, 0x00,
  0x00, 0x00, 0x00, 0x00, 0x00, 0x00, 0x00, 0x00, 0x00, 0x00, 0x00, 0x00,
  0x00, 0x00, 0x00, 0x00, 0x00, 0x00, 0x00, 0x00, 0x92, 0xfa, 0xff, 0xff,
  0x04, 0x00, 0x00, 0x00, 0x00, 0x03, 0x00, 0x00, 0xd9, 0xa8, 0x2b, 0x24,
  0x47, 0xdb, 0xdb, 0x45, 0x14, 0xb9, 0xd4, 0x31, 0x7f, 0x22, 0xf4, 0x18,
  0xbb, 0x06, 0xd6, 0x1c, 0xd8, 0x39, 0xb2, 0x0a, 0x35, 0x4e, 0xf9, 0x26,
  0xfe, 0x16, 0x0b, 0x3d, 0xce, 0x02, 0xea, 0xa1, 0x0a, 0xdb, 0xef, 0xff,
  0x0a, 0x1b, 0x52, 0x23, 0xe1, 0xbe, 0x81, 0xe9, 0xda, 0x05, 0x36, 0x18,
  0x28, 0xd6, 0xe2, 0x6b, 0xed, 0x0d, 0xc6, 0x0b, 0x7f, 0xf0, 0xdb, 0xcc,
  0xce, 0x02, 0xbc, 0x35, 0xc0, 0x2f, 0xea, 0xc9, 0xee, 0x30, 0x08, 0xec,
  0xc6, 0xf9, 0xcf, 0xdf, 0x04, 0x28, 0x43, 0xb4, 0x0c, 0x74, 0xf7, 0xc8,
  0x7f, 0xce, 0x3c, 0xb5, 0x67, 0xe0, 0x5c, 0xe6, 0xb4, 0xcd, 0x7f, 0x9c,
  0xff, 0xe7, 0xd2, 0x99, 0xb2, 0xc5, 0x1e, 0xf5, 0xdf, 0x49, 0x37, 0x1c,
  0xd7, 0x12, 0xdd, 0x15, 0x3d, 0xd1, 0xcb, 0x78, 0xf4, 0x38, 0xd1, 0x2d,
  0x12, 0x0e, 0xe7, 0xfd, 0xe4, 0x1e, 0x54, 0x81, 0x0b, 0xff, 0xfb, 0x00,
  0xb4, 0x58, 0x46, 0xea, 0xae, 0xb3, 0xee, 0xd2, 0xc2, 0x9c, 0x04, 0xed,
  0x1b, 0x0c, 0x64, 0xf7, 0xd3, 0xa8, 0xda, 0x01, 0x05, 0x55, 0x28, 0x3b,
  0x85, 0xed, 0xa2, 0x4a, 0x1c, 0xfc, 0xc6, 0x81, 0xa1, 0x4e, 0x19, 0x97,
  0x34, 0xaf, 0xd8, 0x6a, 0xda, 0x2e, 0x99, 0x7c, 0x81, 0x0b, 0x49, 0xdb,
  0xdd, 0xdd, 0xe7, 0x3f, 0xc6, 0x38, 0xc5, 0xec, 0xfe, 0x25, 0xda, 0x40,
  0x2f, 0xb2, 0x0d, 0x48, 0xc2, 0xbb, 0xd5, 0x0c, 0x81, 0xc5, 0xb7, 0x41,
  0xf6, 0x50, 0x4f, 0x1c, 0xc1, 0xea, 0xad, 0xdb, 0x05, 0xca, 0xfb, 0xca,
  0x3f, 0xd8, 0xec, 0x2f, 0x0b, 0x65, 0x33, 0x7f, 0x3c, 0x13, 0x01, 0xc7,
  0x0b, 0x28, 0xfe, 0xf7, 0x1d, 0x2e, 0xd4, 0x02, 0x09, 0x0c, 0x06, 0x19,
  0xc4, 0xfa, 0xb8, 0xc8, 0xe2, 0x02, 0x3d, 0xd3, 0x1f, 0x62, 0xfa, 0xd8,
  0x7f, 0xf4, 0x73, 0xdc, 0xdd, 0xd6, 0x09, 0xd2, 0xe0, 0xf0, 0x2f, 0xdc,
  0xbf, 0x19, 0xa9, 0xf1, 0x2c, 0x3a, 0xc3, 0x53, 0xe9, 0xa6, 0x7f, 0xc6,
  0x15, 0xab, 0xfa, 0xfa, 0x13, 0x22, 0xed, 0xfd, 0xbf, 0xf0, 0xb1, 0xeb,
  0xeb, 0x37, 0xe5, 0xe6, 0x7f, 0xd8, 0x31, 0x0e, 0x15, 0xe2, 0x2c, 0xe8,
  0xc8, 0x25, 0x04, 0xf5, 0xc2, 0x39, 0xb6, 0x0e, 0x87, 0xd4, 0x51, 0xc5,
  0xbf, 0xed, 0xe1, 0xb8, 0xcd, 0x7f, 0xfd, 0x03, 0xd4, 0xca, 0x66, 0xd8,
  0x42, 0x2a, 0xc8, 0xe6, 0x64, 0xec, 0x0a, 0x22, 0xe9, 0xd4, 0xfa, 0xc9,
  0x0c, 0x20, 0x3c, 0x02, 0x58, 0x19, 0x3b, 0x2b, 0x7f, 0xcf, 0xe3, 0xf5,
  0xe3, 0x2a, 0xb9, 0xe5, 0x0c, 0x69, 0xfd, 0xfc, 0x10, 0xbf, 0x24, 0xad,
  0x1b, 0x1e, 0x59, 0xc4, 0x40, 0xfa, 0xef, 0xbc, 0xf0, 0x1b, 0xe2, 0x02,
  0x81, 0xf8, 0xc9, 0xea, 0x4a, 0x51, 0x20, 0x9b, 0x1b, 0x1c, 0x11, 0xed,
  0x0d, 0xe8, 0xca, 0x91, 0xd8, 0xbc, 0xd4, 0x30, 0x22, 0xe2, 0x7f, 0x42,
  0x95, 0xea, 0x36, 0xe2, 0xc8, 0x17, 0xdb, 0x02, 0x0b, 0xbd, 0xcc, 0x1b,
  0xa7, 0xb1, 0xe6, 0x00, 0x47, 0x15, 0x2d, 0x81, 0xfd, 0x3b, 0xee, 0xdb,
  0x47, 0xfd, 0x1a, 0xf9, 0x75, 0x04, 0x2c, 0xa6, 0x33, 0x41, 0x6c, 0xe2,
  0x09, 0x24, 0x7f, 0xed, 0xa2, 0xdc, 0x04, 0x2b, 0xc4, 0x25, 0xfd, 0x43,
  0xc7, 0xa0, 0xc2, 0xf9, 0x26, 0x05, 0xd5, 0xcf, 0x25, 0xf4, 0x18, 0x4b,
  0xef, 0x75, 0x32, 0x7f, 0x86, 0x05, 0x00, 0x9f, 0xed, 0xf1, 0x8f, 0x0a,
  0x1c, 0xa6, 0x1a, 0x5e, 0xeb, 0xbc, 0xfe, 0xc0, 0x27, 0xcb, 0x41, 0xc7,
  0xc9, 0xbc, 0x81, 0x94, 0xb5, 0xe8, 0x14, 0xc6, 0xf8, 0x11, 0x1b, 0xd1,
  0xf1, 0x3b, 0x1f, 0xfa, 0x02, 0x17, 0x22, 0x40, 0xfb, 0x87, 0xd2, 0x19,
  0xe2, 0xc2, 0x81, 0xe0, 0x5f, 0x20, 0x73, 0x3a, 0xe5, 0x4b, 0x0c, 0xb0,
  0x01, 0x3f, 0x46, 0x9f, 0x42, 0x8c, 0x55, 0xcb, 0x0a, 0x4f, 0x05, 0x66,
  0x30, 0xd3, 0x36, 0xc7, 0xe7, 0x34, 0x4c, 0x26, 0xea, 0xf0, 0x96, 0x29,
  0xf4, 0xc6, 0x81, 0x36, 0xc8, 0xce, 0xd6, 0x1d, 0x9b, 0x3f, 0xfb, 0x0d,
  0x31, 0xed, 0x22, 0x7f, 0xe3, 0x24, 0xf8, 0xef, 0x0e, 0x06, 0x9b, 0xef,
  0x79, 0xe2, 0x64, 0x34, 0xfa, 0x9c, 0x30, 0xc2, 0x15, 0x19, 0xe8, 0xc1,
  0xc6, 0xa7, 0xc3, 0x5a, 0x12, 0x16, 0xd9, 0xfd, 0x0b, 0x30, 0x81, 0x25,
  0x1f, 0x36, 0x08, 0x16, 0x14, 0x14, 0x3b, 0xb9, 0x7f, 0x19, 0xef, 0xbd,
  0x40, 0x78, 0x6c, 0x63, 0x00, 0x65, 0x6e, 0xb8, 0xef, 0x01, 0xdb, 0xaa,
  0xd6, 0x69, 0x06, 0x5d, 0xdd, 0x20, 0xca, 0x1e, 0x02, 0x49, 0xd7, 0xea,
  0x04, 0xd3, 0xfe, 0xfc, 0x51, 0xf6, 0xaf, 0x9b, 0xf5, 0x23, 0xad, 0x03,
  0x3c, 0x1d, 0xc8, 0x3d, 0x16, 0x3d, 0xeb, 0x81, 0x98, 0x81, 0xfa, 0xa9,
  0xbd, 0xad, 0x1c, 0x0b, 0x23, 0x61, 0x30, 0x45, 0x35, 0x22, 0xdc, 0xe2,
  0x51, 0xe2, 0xf6, 0xcf, 0x26, 0x5d, 0x29, 0x1b, 0x1f, 0x0e, 0x8c, 0xd1,
  0xe0, 0xee, 0xbe, 0xfd, 0x00, 0x17, 0x1e, 0xe3, 0x19, 0xe4, 0x41, 0xd1,
  0xcf, 0x7f, 0xf2, 0x08, 0x37, 0xe2, 0x2f, 0x17, 0x2b, 0xda, 0x2e, 0xe3,
  0xfd, 0x55, 0x7f, 0x04, 0xd3, 0x96, 0xe4, 0x5c, 0xf9, 0x04, 0x2b, 0x64,
  0xdf, 0xc7, 0xd6, 0x38, 0x7b, 0xdd, 0xd9, 0xe7, 0x2c, 0xec, 0x81, 0x0b,
  0xb7, 0x9c, 0xdb, 0x22, 0xa0, 0xe9, 0x06, 0x8b, 0x0e, 0x75, 0x1e, 0xdb,
  0xf9, 0x39, 0x2b, 0xda, 0xf8, 0x30, 0x37, 0xa6, 0xbe, 0xbd, 0xcf, 0x04,
  0x2b, 0xd5, 0xe7, 0x5c, 0x08, 0x93, 0xa9, 0x7f, 0x53, 0xc5, 0x24, 0x19,
  0xe4, 0xf2, 0xac, 0x2c, 0x30, 0x50, 0xca, 0xeb, 0x9e, 0xfd, 0xff, 0xff,
  0x04, 0x00, 0x00, 0x00, 0x80, 0x00, 0x00, 0x00, 0xbb, 0xfa, 0xff, 0xff,
  0x09, 0xfb, 0xff, 0xff, 0xd2, 0xf7, 0xff, 0xff, 0x2b, 0xfe, 0xff, 0xff,
  0x7c, 0xfd, 0xff, 0xff, 0x8a, 0x04, 0x00, 0x00, 0x76, 0x0a, 0x00, 0x00,
  0xad, 0xff, 0xff, 0xff, 0xba, 0x03, 0x00, 0x00, 0x54, 0xff, 0xff, 0xff,
  0x0f, 0xfe, 0xff, 0xff, 0xb2, 0x00, 0x00, 0x00, 0xd3, 0x08, 0x00, 0x00,
  0x42, 0xfe, 0xff, 0xff, 0x05, 0x04, 0x00, 0x00, 0xaf, 0x03, 0x00, 0x00,
  0x7d, 0x0f, 0x00, 0x00, 0x7e, 0xfa, 0xff, 0xff, 0x66, 0x08, 0x00, 0x00,
  0x05, 0xfb, 0xff, 0xff, 0xcb, 0xf9, 0xff, 0xff, 0xa7, 0xfe, 0xff, 0xff,
  0x01, 0xfe, 0xff, 0xff, 0x22, 0xfd, 0xff, 0xff, 0xeb, 0xf9, 0xff, 0xff,
  0x69, 0xfc, 0xff, 0xff, 0xe2, 0xfb, 0xff, 0xff, 0xa8, 0xfe, 0xff, 0xff,
  0x60, 0x06, 0x00, 0x00, 0x5b, 0x0e, 0x00, 0x00, 0x78, 0x02, 0x00, 0x00,
  0x06, 0x07, 0x00, 0x00, 0x2a, 0xfe, 0xff, 0xff, 0x04, 0x00, 0x00, 0x00,
  0xc0, 0x00, 0x00, 0x00, 0x5c, 0x81, 0x37, 0xcb, 0xb2, 0xce, 0xfd, 0x34,
  0x30, 0x2a, 0xc7, 0x02, 0xed, 0x21, 0x52, 0xf4, 0x88, 0xe1, 0x07, 0xdd,
  0xdc, 0xcc, 0x12, 0xf3, 0x09, 0xa0, 0x17, 0x1d, 0xca, 0xcf, 0xea, 0x5c,
  0x8c, 0x83, 0x0e, 0x67, 0x13, 0xcc, 0xa2, 0x27, 0xd0, 0x0f, 0x50, 0x05,
  0x81, 0x62, 0xa0, 0xe7, 0xcf, 0x3f, 0x0b, 0xbe, 0x40, 0x68, 0xbf, 0xf3,
  0xfa, 0x16, 0x0c, 0x37, 0x1a, 0xc7, 0x5c, 0x8d, 0x18, 0x5d, 0x31, 0x16,
  0x87, 0x02, 0x9c, 0x1a, 0x26, 0xd1, 0x2e, 0x81, 0xa5, 0xa5, 0xfd, 0xf1,
  0xda, 0x1f, 0xc3, 0x30, 0xe4, 0x23, 0x08, 0x40, 0x15, 0x14, 0x2f, 0x02,
  0x96, 0xd2, 0x35, 0xaf, 0x10, 0xcf, 0xac, 0xbd, 0x45, 0xde, 0x22, 0xcc,
  0xef, 0xaf, 0xc3, 0x09, 0x38, 0xc1, 0xbe, 0x09, 0x53, 0xff, 0x02, 0xc8,
  0x0d, 0xc1, 0x9d, 0xcc, 0x81, 0x98, 0x1a, 0x9a, 0x4b, 0x35, 0x27, 0x64,
  0x17, 0xde, 0xff, 0xb8, 0x2c, 0x98, 0x57, 0xbd, 0x81, 0xe2, 0xb0, 0x10,
  0x84, 0xec, 0x25, 0x2e, 0x36, 0xc9, 0x59, 0x29, 0xe0, 0xaa, 0x6c, 0xa0,
  0x97, 0x17, 0x88, 0x9d, 0xb4, 0x6a, 0xe7, 0xd4, 0xe5, 0x3d, 0xc8, 0xbf,
  0xe4, 0x40, 0xca, 0xb3, 0xc4, 0x20, 0x36, 0x21, 0x3c, 0x0d, 0x1f, 0xad,
  0x21, 0xce, 0xd2, 0xd6, 0xc1, 0x53, 0xe9, 0xce, 0xc4, 0x36, 0x81, 0xb6,
  0x3f, 0xa6, 0xf3, 0xb2, 0xf6, 0xfe, 0xff, 0xff, 0x04, 0x00, 0x00, 0x00,
  0x18, 0x00, 0x00, 0x00, 0xf5, 0x01, 0x00, 0x00, 0x6f, 0xff, 0xff, 0xff,
  0x19, 0xfd, 0xff, 0xff, 0xea, 0x01, 0x00, 0x00, 0xca, 0xfc, 0xff, 0xff,
  0x8d, 0x02, 0x00, 0x00, 0x1a, 0xff, 0xff, 0xff, 0x04, 0x00, 0x00, 0x00,
  0x04, 0x00, 0x00, 0x00, 0x01, 0x00, 0x00, 0x00, 0x2a, 0xff, 0xff, 0xff,
  0x04, 0x00, 0x00, 0x00, 0x0c, 0x00, 0x00, 0x00, 0x01, 0x00, 0x00, 0x00,
  0x40, 0x00, 0x00, 0x00, 0x20, 0x00, 0x00, 0x00, 0x42, 0xff, 0xff, 0xff,
  0x04, 0x00, 0x00, 0x00, 0x10, 0x00, 0x00, 0x00, 0x01, 0x00, 0x00, 0x00,
  0x01, 0x00, 0x00, 0x00, 0x80, 0x00, 0x00, 0x00, 0x0a, 0x00, 0x00, 0x00,
  0x24, 0xe4, 0xff, 0xff, 0x28, 0xe4, 0xff, 0xff, 0x0f, 0x00, 0x00, 0x00,
  0x4d, 0x4c, 0x49, 0x52, 0x20, 0x43, 0x6f, 0x6e, 0x76, 0x65, 0x72, 0x74,
  0x65, 0x64, 0x2e, 0x00, 0x01, 0x00, 0x00, 0x00, 0x14, 0x00, 0x00, 0x00,
  0x00, 0x00, 0x0e, 0x00, 0x18, 0x00, 0x14, 0x00, 0x10, 0x00, 0x0c, 0x00,
  0x08, 0x00, 0x04, 0x00, 0x0e, 0x00, 0x00, 0x00, 0x14, 0x00, 0x00, 0x00,
  0x1c, 0x00, 0x00, 0x00, 0x0c, 0x03, 0x00, 0x00, 0x10, 0x03, 0x00, 0x00,
  0x14, 0x03, 0x00, 0x00, 0x04, 0x00, 0x00, 0x00, 0x6d, 0x61, 0x69, 0x6e,
  0x00, 0x00, 0x00, 0x00, 0x0b, 0x00, 0x00, 0x00, 0xd0, 0x02, 0x00, 0x00,
  0x74, 0x02, 0x00, 0x00, 0x14, 0x02, 0x00, 0x00, 0xc0, 0x01, 0x00, 0x00,
  0x6c, 0x01, 0x00, 0x00, 0x18, 0x01, 0x00, 0x00, 0xd0, 0x00, 0x00, 0x00,
  0xac, 0x00, 0x00, 0x00, 0x78, 0x00, 0x00, 0x00, 0x40, 0x00, 0x00, 0x00,
  0x04, 0x00, 0x00, 0x00, 0xbe, 0xfe, 0xff, 0xff, 0x1c, 0x00, 0x00, 0x00,
  0x00, 0x00, 0x00, 0x09, 0x1c, 0x00, 0x00, 0x00, 0x20, 0x00, 0x00, 0x00,
  0x06, 0x00, 0x00, 0x00, 0x00, 0x00, 0x06, 0x00, 0x08, 0x00, 0x04, 0x00,
  0x06, 0x00, 0x00, 0x00, 0x00, 0x00, 0x80, 0x3f, 0x01, 0x00, 0x00, 0x00,
  0x1a, 0x00, 0x00, 0x00, 0x01, 0x00, 0x00, 0x00, 0x19, 0x00, 0x00, 0x00,
  0xfa, 0xfd, 0xff, 0xff, 0x14, 0x00, 0x00, 0x00, 0x00, 0x00, 0x00, 0x08,
  0x10, 0x00, 0x00, 0x00, 0x14, 0x00, 0x00, 0x00, 0x05, 0x00, 0x00, 0x00,
  0xfc, 0xe4, 0xff, 0xff, 0x01, 0x00, 0x00, 0x00, 0x19, 0x00, 0x00, 0x00,
  0x03, 0x00, 0x00, 0x00, 0x18, 0x00, 0x00, 0x00, 0x05, 0x00, 0x00, 0x00,
  0x04, 0x00, 0x00, 0x00, 0x2e, 0xfe, 0xff, 0xff, 0x14, 0x00, 0x00, 0x00,
  0x00, 0x00, 0x00, 0x1b, 0x10, 0x00, 0x00, 0x00, 0x14, 0x00, 0x00, 0x00,
  0x04, 0x00, 0x00, 0x00, 0x30, 0xe5, 0xff, 0xff, 0x01, 0x00, 0x00, 0x00,
  0x18, 0x00, 0x00, 0x00, 0x02, 0x00, 0x00, 0x00, 0x17, 0x00, 0x00, 0x00,
  0x03, 0x00, 0x00, 0x00, 0x02, 0xfe, 0xff, 0xff, 0x08, 0x00, 0x00, 0x00,
  0x0c, 0x00, 0x00, 0x00, 0x01, 0x00, 0x00, 0x00, 0x17, 0x00, 0x00, 0x00,
  0x02, 0x00, 0x00, 0x00, 0x16, 0x00, 0x00, 0x00, 0x02, 0x00, 0x00, 0x00,
  0x7e, 0xfe, 0xff, 0xff, 0x14, 0x00, 0x00, 0x00, 0x00, 0x00, 0x00, 0x01,
  0x20, 0x00, 0x00, 0x00, 0x24, 0x00, 0x00, 0x00, 0x01, 0x00, 0x00, 0x00,
  0x1c, 0xff, 0xff, 0xff, 0x00, 0x00, 0x00, 0x01, 0x01, 0x00, 0x00, 0x00,
  0x01, 0x00, 0x00, 0x00, 0x00, 0x00, 0x00, 0x01, 0x01, 0x00, 0x00, 0x00,
  0x16, 0x00, 0x00, 0x00, 0x03, 0x00, 0x00, 0x00, 0x15, 0x00, 0x00, 0x00,
  0x07, 0x00, 0x00, 0x00, 0x06, 0x00, 0x00, 0x00, 0xc2, 0xfe, 0xff, 0xff,
  0x14, 0x00, 0x00, 0x00, 0x00, 0x00, 0x00, 0x02, 0x1c, 0x00, 0x00, 0x00,
  0x20, 0x00, 0x00, 0x00, 0x02, 0x00, 0x00, 0x00, 0x10, 0xff, 0xff, 0xff,
  0x01, 0x00, 0x00, 0x00, 0x01, 0x00, 0x00, 0x00, 0x01, 0x00, 0x00, 0x00,
  0x01, 0x00, 0x00, 0x00, 0x15, 0x00, 0x00, 0x00, 0x03, 0x00, 0x00, 0x00,
  0x14, 0x00, 0x00, 0x00, 0x09, 0x00, 0x00, 0x00, 0x08, 0x00, 0x00, 0x00,
  0x00, 0x00, 0x0e, 0x00, 0x1a, 0x00, 0x14, 0x00, 0x10, 0x00, 0x0c, 0x00,
  0x0b, 0x00, 0x04, 0x00, 0x0e, 0x00, 0x00, 0x00, 0x24, 0x00, 0x00, 0x00,
  0x00, 0x00, 0x00, 0x05, 0x34, 0x00, 0x00, 0x00, 0x38, 0x00, 0x00, 0x00,
  0x03, 0x00, 0x00, 0x00, 0x00, 0x00, 0x0e, 0x00, 0x18, 0x00, 0x17, 0x00,
  0x10, 0x00, 0x0c, 0x00, 0x08, 0x00, 0x04, 0x00, 0x0e, 0x00, 0x00, 0x00,
  0x01, 0x00, 0x00, 0x00, 0x02, 0x00, 0x00, 0x00, 0x01, 0x00, 0x00, 0x00,
  0x02, 0x00, 0x00, 0x00, 0x00, 0x00, 0x00, 0x01, 0x01, 0x00, 0x00, 0x00,
  0x14, 0x00, 0x00, 0x00, 0x01, 0x00, 0x00, 0x00, 0x13, 0x00, 0x00, 0x00,
  0x62, 0xff, 0xff, 0xff, 0x20, 0x00, 0x00, 0x00, 0x00, 0x00, 0x00, 0x01,
  0x2c, 0x00, 0x00, 0x00, 0x30, 0x00, 0x00, 0x00, 0x01, 0x00, 0x00, 0x00,
  0x0c, 0x00, 0x14, 0x00, 0x13, 0x00, 0x0c, 0x00, 0x08, 0x00, 0x07, 0x00,
  0x0c, 0x00, 0x00, 0x00, 0x00, 0x00, 0x00, 0x01, 0x01, 0x00, 0x00, 0x00,
  0x01, 0x00, 0x00, 0x00, 0x00, 0x00, 0x00, 0x01, 0x01, 0x00, 0x00, 0x00,
  0x13, 0x00, 0x00, 0x00, 0x03, 0x00, 0x00, 0x00, 0x12, 0x00, 0x00, 0x00,
  0x0b, 0x00, 0x00, 0x00, 0x0a, 0x00, 0x00, 0x00, 0xb2, 0xff, 0xff, 0xff,
  0x20, 0x00, 0x00, 0x00, 0x00, 0x00, 0x00, 0x02, 0x28, 0x00, 0x00, 0x00,
  0x2c, 0x00, 0x00, 0x00, 0x02, 0x00, 0x00, 0x00, 0x0c, 0x00, 0x10, 0x00,
  0x00, 0x00, 0x0c, 0x00, 0x08, 0x00, 0x04, 0x00, 0x0c, 0x00, 0x00, 0x00,
  0x01, 0x00, 0x00, 0x00, 0x01, 0x00, 0x00, 0x00, 0x01, 0x00, 0x00, 0x00,
  0x01, 0x00, 0x00, 0x00, 0x12, 0x00, 0x00, 0x00, 0x03, 0x00, 0x00, 0x00,
  0x11, 0x00, 0x00, 0x00, 0x0d, 0x00, 0x00, 0x00, 0x0c, 0x00, 0x00, 0x00,
  0x00, 0x00, 0x0e, 0x00, 0x18, 0x00, 0x14, 0x00, 0x10, 0x00, 0x0c, 0x00,
  0x0b, 0x00, 0x04, 0x00, 0x0e, 0x00, 0x00, 0x00, 0x20, 0x00, 0x00, 0x00,
  0x00, 0x00, 0x00, 0x01, 0x28, 0x00, 0x00, 0x00, 0x2c, 0x00, 0x00, 0x00,
  0x01, 0x00, 0x00, 0x00, 0x0c, 0x00, 0x10, 0x00, 0x00, 0x00, 0x0c, 0x00,
  0x08, 0x00, 0x07, 0x00, 0x0c, 0x00, 0x00, 0x00, 0x00, 0x00, 0x00, 0x01,
  0x01, 0x00, 0x00, 0x00, 0x01, 0x00, 0x00, 0x00, 0x01, 0x00, 0x00, 0x00,
  0x11, 0x00, 0x00, 0x00, 0x03, 0x00, 0x00, 0x00, 0x10, 0x00, 0x00, 0x00,
  0x0f, 0x00, 0x00, 0x00, 0x0e, 0x00, 0x00, 0x00, 0x00, 0x00, 0x0a, 0x00,
  0x0c, 0x00, 0x00, 0x00, 0x08, 0x00, 0x04, 0x00, 0x0a, 0x00, 0x00, 0x00,
  0x08, 0x00, 0x00, 0x00, 0x0c, 0x00, 0x00, 0x00, 0x01, 0x00, 0x00, 0x00,
  0x10, 0x00, 0x00, 0x00, 0x02, 0x00, 0x00, 0x00, 0x00, 0x00, 0x00, 0x00,
  0x01, 0x00, 0x00, 0x00, 0x01, 0x00, 0x00, 0x00, 0x1a, 0x00, 0x00, 0x00,
  0x01, 0x00, 0x00, 0x00, 0x00, 0x00, 0x00, 0x00, 0x1b, 0x00, 0x00, 0x00,
  0xb8, 0x18, 0x00, 0x00, 0x5c, 0x18, 0x00, 0x00, 0x1c, 0x18, 0x00, 0x00,
  0xe0, 0x17, 0x00, 0x00, 0x44, 0x17, 0x00, 0x00, 0xa0, 0x16, 0x00, 0x00,
  0xcc, 0x14, 0x00, 0x00, 0xe8, 0x12, 0x00, 0x00, 0x74, 0x11, 0x00, 0x00,
  0xd8, 0x0f, 0x00, 0x00, 0x4c, 0x0e, 0x00, 0x00, 0xc8, 0x0c, 0x00, 0x00,
  0xe4, 0x0b, 0x00, 0x00, 0xec, 0x0a, 0x00, 0x00, 0x04, 0x0a, 0x00, 0x00,
  0x10, 0x09, 0x00, 0x00, 0x84, 0x08, 0x00, 0x00, 0x18, 0x07, 0x00, 0x00,
  0x84, 0x06, 0x00, 0x00, 0x20, 0x05, 0x00, 0x00, 0x9c, 0x04, 0x00, 0x00,
  0x08, 0x04, 0x00, 0x00, 0xa4, 0x02, 0x00, 0x00, 0x70, 0x01, 0x00, 0x00,
  0xf4, 0x00, 0x00, 0x00, 0x60, 0x00, 0x00, 0x00, 0x04, 0x00, 0x00, 0x00,
  0xca, 0xe7, 0xff, 0xff, 0x00, 0x00, 0x00, 0x01, 0x14, 0x00, 0x00, 0x00,
  0x30, 0x00, 0x00, 0x00, 0x1b, 0x00, 0x00, 0x00, 0x00, 0x00, 0x00, 0x09,
  0x34, 0x00, 0x00, 0x00, 0xb4, 0xe7, 0xff, 0xff, 0x08, 0x00, 0x00, 0x00,
  0x10, 0x00, 0x00, 0x00, 0x01, 0x00, 0x00, 0x00, 0x80, 0xff, 0xff, 0xff,
  0xff, 0xff, 0xff, 0xff, 0x01, 0x00, 0x00, 0x00, 0x00, 0x00, 0x80, 0x3b,
  0x08, 0x00, 0x00, 0x00, 0x49, 0x64, 0x65, 0x6e, 0x74, 0x69, 0x74, 0x79,
  0x00, 0x00, 0x00, 0x00, 0x02, 0x00, 0x00, 0x00, 0x01, 0x00, 0x00, 0x00,
  0x06, 0x00, 0x00, 0x00, 0x22, 0xe8, 0xff, 0xff, 0x00, 0x00, 0x00, 0x01,
  0x14, 0x00, 0x00, 0x00, 0x30, 0x00, 0x00, 0x00, 0x1a, 0x00, 0x00, 0x00,
  0x00, 0x00, 0x00, 0x09, 0x6c, 0x00, 0x00, 0x00, 0x0c, 0xe8, 0xff, 0xff,
  0x08, 0x00, 0x00, 0x00, 0x10, 0x00, 0x00, 0x00, 0x01, 0x00, 0x00, 0x00,
  0x1d, 0x00, 0x00, 0x00, 0x00, 0x00, 0x00, 0x00, 0x01, 0x00, 0x00, 0x00,
  0x31, 0xe4, 0x14, 0x3e, 0x40, 0x00, 0x00, 0x00, 0x74, 0x69, 0x6e, 0x79,
  0x5f, 0x64, 0x73, 0x5f, 0x63, 0x6e, 0x6e, 0x5f, 0x31, 0x2f, 0x61, 0x63,
  0x74, 0x69, 0x76, 0x69, 0x74, 0x79, 0x5f, 0x31, 0x2f, 0x4d, 0x61, 0x74,
  0x4d, 0x75, 0x6c, 0x3b, 0x74, 0x69, 0x6e, 0x79, 0x5f, 0x64, 0x73, 0x5f,
  0x63, 0x6e, 0x6e, 0x5f, 0x31, 0x2f, 0x61, 0x63, 0x74, 0x69, 0x76, 0x69,
  0x74, 0x79, 0x5f, 0x31, 0x2f, 0x42, 0x69, 0x61, 0x73, 0x41, 0x64, 0x64,
  0x00, 0x00, 0x00, 0x00, 0x02, 0x00, 0x00, 0x00, 0x01, 0x00, 0x00, 0x00,
  0x06, 0x00, 0x00, 0x00, 0xb2, 0xe8, 0xff, 0xff, 0x00, 0x00, 0x00, 0x01,
  0x14, 0x00, 0x00, 0x00, 0x34, 0x00, 0x00, 0x00, 0x19, 0x00, 0x00, 0x00,
  0x00, 0x00, 0x00, 0x09, 0x54, 0x00, 0x00, 0x00, 0x9c, 0xe8, 0xff, 0xff,
  0x08, 0x00, 0x00, 0x00, 0x14, 0x00, 0x00, 0x00, 0x01, 0x00, 0x00, 0x00,
  0x80, 0xff, 0xff, 0xff, 0xff, 0xff, 0xff, 0xff, 0x00, 0x00, 0x00, 0x00,
  0x01, 0x00, 0x00, 0x00, 0x90, 0xf5, 0xa8, 0x3c, 0x24, 0x00, 0x00, 0x00,
  0x74, 0x69, 0x6e, 0x79, 0x5f, 0x64, 0x73, 0x5f, 0x63, 0x6e, 0x6e, 0x5f,
  0x31, 0x2f, 0x67, 0x6c, 0x6f, 0x62, 0x61, 0x6c, 0x5f, 0x61, 0x76, 0x67,
  0x5f, 0x70, 0x6f, 0x6f, 0x6c, 0x5f, 0x31, 0x2f, 0x4d, 0x65, 0x61, 0x6e,
  0x00, 0x00, 0x00, 0x00, 0x02, 0x00, 0x00, 0x00, 0x01, 0x00, 0x00, 0x00,
  0x20, 0x00, 0x00, 0x00, 0x2a, 0xe9, 0xff, 0xff, 0x00, 0x00, 0x00, 0x01,
  0x14, 0x00, 0x00, 0x00, 0x30, 0x00, 0x00, 0x00, 0x18, 0x00, 0x00, 0x00,
  0x00, 0x00, 0x00, 0x09, 0x08, 0x01, 0x00, 0x00, 0x14, 0xe9, 0xff, 0xff,
  0x08, 0x00, 0x00, 0x00, 0x10, 0x00, 0x00, 0x00, 0x01, 0x00, 0x00, 0x00,
  0x80, 0xff, 0xff, 0xff, 0xff, 0xff, 0xff, 0xff, 0x01, 0x00, 0x00, 0x00,
  0x7c, 0x51, 0x89, 0x3d, 0xdc, 0x00, 0x00, 0x00, 0x74, 0x69, 0x6e, 0x79,
  0x5f, 0x64, 0x73, 0x5f, 0x63, 0x6e, 0x6e, 0x5f, 0x31, 0x2f, 0x64, 0x73,
  0x5f, 0x72, 0x65, 0x6c, 0x75, 0x5f, 0x32, 0x5f, 0x31, 0x2f, 0x52, 0x65,
  0x6c, 0x75, 0x3b, 0x74, 0x69, 0x6e, 0x79, 0x5f, 0x64, 0x73, 0x5f, 0x63,
  0x6e, 0x6e, 0x5f, 0x31, 0x2f, 0x64, 0x73, 0x5f, 0x62, 0x6e, 0x5f, 0x32,
  0x5f, 0x31, 0x2f, 0x62, 0x61, 0x74, 0x63, 0x68, 0x6e, 0x6f, 0x72, 0x6d,
  0x2f, 0x61, 0x64, 0x64, 0x5f, 0x31, 0x3b, 0x74, 0x69, 0x6e, 0x79, 0x5f,
  0x64, 0x73, 0x5f, 0x63, 0x6e, 0x6e, 0x5f, 0x31, 0x2f, 0x64, 0x73, 0x5f,
  0x63, 0x6f, 0x6e, 0x76, 0x5f, 0x32, 0x5f, 0x31, 0x2f, 0x53, 0x71, 0x75,
  0x65, 0x65, 0x7a, 0x65, 0x3b, 0x74, 0x69, 0x6e, 0x79, 0x5f, 0x64, 0x73,
  0x5f, 0x63, 0x6e, 0x6e, 0x5f, 0x31, 0x2f, 0x64, 0x73, 0x5f, 0x62, 0x6e,
  0x5f, 0x32, 0x5f, 0x31, 0x2f, 0x62, 0x61, 0x74, 0x63, 0x68, 0x6e, 0x6f,
  0x72, 0x6d, 0x2f, 0x6d, 0x75, 0x6c, 0x5f, 0x31, 0x3b, 0x74, 0x69, 0x6e,
  0x79, 0x5f, 0x64, 0x73, 0x5f, 0x63, 0x6e, 0x6e, 0x5f, 0x31, 0x2f, 0x64,
  0x73, 0x5f, 0x62, 0x6e, 0x5f, 0x32, 0x5f, 0x31, 0x2f, 0x62, 0x61, 0x74,
  0x63, 0x68, 0x6e, 0x6f, 0x72, 0x6d, 0x2f, 0x6d, 0x75, 0x6c, 0x3b, 0x74,
  0x69, 0x6e, 0x79, 0x5f, 0x64, 0x73, 0x5f, 0x63, 0x6e, 0x6e, 0x5f, 0x31,
  0x2f, 0x64, 0x73, 0x5f, 0x62, 0x6e, 0x5f, 0x32, 0x5f, 0x31, 0x2f, 0x62,
  0x61, 0x74, 0x63, 0x68, 0x6e, 0x6f, 0x72, 0x6d, 0x2f, 0x73, 0x75, 0x62,
  0x00, 0x00, 0x00, 0x00, 0x03, 0x00, 0x00, 0x00, 0x01, 0x00, 0x00, 0x00,
  0x40, 0x00, 0x00, 0x00, 0x20, 0x00, 0x00, 0x00, 0x5a, 0xea, 0xff, 0xff,
  0x00, 0x00, 0x00, 0x01, 0x14, 0x00, 0x00, 0x00, 0x34, 0x00, 0x00, 0x00,
  0x17, 0x00, 0x00, 0x00, 0x00, 0x00, 0x00, 0x09, 0x34, 0x01, 0x00, 0x00,
  0x44, 0xea, 0xff, 0xff, 0x08, 0x00, 0x00, 0x00, 0x14, 0x00, 0x00, 0x00,
  0x01, 0x00, 0x00, 0x00, 0x80, 0xff, 0xff, 0xff, 0xff, 0xff, 0xff, 0xff,
  0x00, 0x00, 0x00, 0x00, 0x01, 0x00, 0x00, 0x00, 0x7c, 0x51, 0x89, 0x3d,
  0x07, 0x01, 0x00, 0x00, 0x74, 0x69, 0x6e, 0x79, 0x5f, 0x64, 0x73, 0x5f,
  0x63, 0x6e, 0x6e, 0x5f, 0x31, 0x2f, 0x64, 0x73, 0x5f, 0x72, 0x65, 0x6c,
  0x75, 0x5f, 0x32, 0x5f, 0x31, 0x2f, 0x52, 0x65, 0x6c, 0x75, 0x3b, 0x74,
  0x69, 0x6e, 0x79, 0x5f, 0x64, 0x73, 0x5f, 0x63, 0x6e, 0x6e, 0x5f, 0x31,
  0x2f, 0x64, 0x73, 0x5f, 0x62, 0x6e, 0x5f, 0x32, 0x5f, 0x31, 0x2f, 0x62,
  0x61, 0x74, 0x63, 0x68, 0x6e, 0x6f, 0x72, 0x6d, 0x2f, 0x61, 0x64, 0x64,
  0x5f, 0x31, 0x3b, 0x74, 0x69, 0x6e, 0x79, 0x5f, 0x64, 0x73, 0x5f, 0x63,
  0x6e, 0x6e, 0x5f, 0x31, 0x2f, 0x64, 0x73, 0x5f, 0x63, 0x6f, 0x6e, 0x76,
  0x5f, 0x32, 0x5f, 0x31, 0x2f, 0x53, 0x71, 0x75, 0x65, 0x65, 0x7a, 0x65,
  0x3b, 0x74, 0x69, 0x6e, 0x79, 0x5f, 0x64, 0x73, 0x5f, 0x63, 0x6e, 0x6e,
  0x5f, 0x31, 0x2f, 0x64, 0x73, 0x5f, 0x62, 0x6e, 0x5f, 0x32, 0x5f, 0x31,
  0x2f, 0x62, 0x61, 0x74, 0x63, 0x68, 0x6e, 0x6f, 0x72, 0x6d, 0x2f, 0x6d,
  0x75, 0x6c, 0x5f, 0x31, 0x3b, 0x74, 0x69, 0x6e, 0x79, 0x5f, 0x64, 0x73,
  0x5f, 0x63, 0x6e, 0x6e, 0x5f, 0x31, 0x2f, 0x64, 0x73, 0x5f, 0x62, 0x6e,
  0x5f, 0x32, 0x5f, 0x31, 0x2f, 0x62, 0x61, 0x74, 0x63, 0x68, 0x6e, 0x6f,
  0x72, 0x6d, 0x2f, 0x6d, 0x75, 0x6c, 0x3b, 0x74, 0x69, 0x6e, 0x79, 0x5f,
  0x64, 0x73, 0x5f, 0x63, 0x6e, 0x6e, 0x5f, 0x31, 0x2f, 0x64, 0x73, 0x5f,
  0x62, 0x6e, 0x5f, 0x32, 0x5f, 0x31, 0x2f, 0x62, 0x61, 0x74, 0x63, 0x68,
  0x6e, 0x6f, 0x72, 0x6d, 0x2f, 0x73, 0x75, 0x62, 0x3b, 0x74, 0x69, 0x6e,
  0x79, 0x5f, 0x64, 0x73, 0x5f, 0x63, 0x6e, 0x6e, 0x5f, 0x31, 0x2f, 0x64,
  0x73, 0x5f, 0x63, 0x6f, 0x6e, 0x76, 0x5f, 0x32, 0x5f, 0x31, 0x2f, 0x73,
  0x65, 0x70, 0x61, 0x72, 0x61, 0x62, 0x6c, 0x65, 0x5f, 0x63, 0x6f, 0x6e,
  0x76, 0x32, 0x64, 0x00, 0x04, 0x00, 0x00, 0x00, 0x01, 0x00, 0x00, 0x00,
  0x01, 0x00, 0x00, 0x00, 0x40, 0x00, 0x00, 0x00, 0x20, 0x00, 0x00, 0x00,
  0xba, 0xeb, 0xff, 0xff, 0x00, 0x00, 0x00, 0x01, 0x14, 0x00, 0x00, 0x00,
  0x34, 0x00, 0x00, 0x00, 0x16, 0x00, 0x00, 0x00, 0x00, 0x00, 0x00, 0x09,
  0x64, 0x00, 0x00, 0x00, 0xa4, 0xeb, 0xff, 0xff, 0x08, 0x00, 0x00, 0x00,
  0x14, 0x00, 0x00, 0x00, 0x01, 0x00, 0x00, 0x00, 0x00, 0x00, 0x00, 0x00,
  0x00, 0x00, 0x00, 0x00, 0x00, 0x00, 0x00, 0x00, 0x01, 0x00, 0x00, 0x00,
  0x5f, 0x5d, 0xed, 0x3c, 0x34, 0x00, 0x00, 0x00, 0x74, 0x69, 0x6e, 0x79,
  0x5f, 0x64, 0x73, 0x5f, 0x63, 0x6e, 0x6e, 0x5f, 0x31, 0x2f, 0x64, 0x73,
  0x5f, 0x63, 0x6f, 0x6e, 0x76, 0x5f, 0x32, 0x5f, 0x31, 0x2f, 0x73, 0x65,
  0x70, 0x61, 0x72, 0x61, 0x62, 0x6c, 0x65, 0x5f, 0x63, 0x6f, 0x6e, 0x76,
  0x32, 0x64, 0x2f, 0x64, 0x65, 0x70, 0x74, 0x68, 0x77, 0x69, 0x73, 0x65,
  0x00, 0x00, 0x00, 0x00, 0x04, 0x00, 0x00, 0x00, 0x01, 0x00, 0x00, 0x00,
  0x01, 0x00, 0x00, 0x00, 0x40, 0x00, 0x00, 0x00, 0x18, 0x00, 0x00, 0x00,
  0x4a, 0xec, 0xff, 0xff, 0x00, 0x00, 0x00, 0x01, 0x14, 0x00, 0x00, 0x00,
  0x34, 0x00, 0x00, 0x00, 0x15, 0x00, 0x00, 0x00, 0x00, 0x00, 0x00, 0x09,
  0x54, 0x00, 0x00, 0x00, 0x34, 0xec, 0xff, 0xff, 0x08, 0x00, 0x00, 0x00,
  0x14, 0x00, 0x00, 0x00, 0x01, 0x00, 0x00, 0x00, 0x80, 0xff, 0xff, 0xff,
  0xff, 0xff, 0xff, 0xff, 0x00, 0x00, 0x00, 0x00, 0x01, 0x00, 0x00, 0x00,
  0x65, 0xa6, 0x2e, 0x3d, 0x24, 0x00, 0x00, 0x00, 0x74, 0x69, 0x6e, 0x79,
  0x5f, 0x64, 0x73, 0x5f, 0x63, 0x6e, 0x6e, 0x5f, 0x31, 0x2f, 0x61, 0x76,
  0x67, 0x5f, 0x70, 0x6f, 0x6f, 0x6c, 0x5f, 0x31, 0x5f, 0x31, 0x2f, 0x41,
  0x76, 0x67, 0x50, 0x6f, 0x6f, 0x6c, 0x31, 0x44, 0x00, 0x00, 0x00, 0x00,
  0x04, 0x00, 0x00, 0x00, 0x01, 0x00, 0x00, 0x00, 0x01, 0x00, 0x00, 0x00,
  0x40, 0x00, 0x00, 0x00, 0x18, 0x00, 0x00, 0x00, 0xca, 0xec, 0xff, 0xff,
  0x00, 0x00, 0x00, 0x01, 0x14, 0x00, 0x00, 0x00, 0x34, 0x00, 0x00, 0x00,
  0x14, 0x00, 0x00, 0x00, 0x00, 0x00, 0x00, 0x09, 0x34, 0x01, 0x00, 0x00,
  0xb4, 0xec, 0xff, 0xff, 0x08, 0x00, 0x00, 0x00, 0x14, 0x00, 0x00, 0x00,
  0x01, 0x00, 0x00, 0x00, 0x80, 0xff, 0xff, 0xff, 0xff, 0xff, 0xff, 0xff,
  0x00, 0x00, 0x00, 0x00, 0x01, 0x00, 0x00, 0x00, 0x65, 0xa6, 0x2e, 0x3d,
  0x07, 0x01, 0x00, 0x00, 0x74, 0x69, 0x6e, 0x79, 0x5f, 0x64, 0x73, 0x5f,
  0x63, 0x6e, 0x6e, 0x5f, 0x31, 0x2f, 0x64, 0x73, 0x5f, 0x72, 0x65, 0x6c,
  0x75, 0x5f, 0x31, 0x5f, 0x31, 0x2f, 0x52, 0x65, 0x6c, 0x75, 0x3b, 0x74,
  0x69, 0x6e, 0x79, 0x5f, 0x64, 0x73, 0x5f, 0x63, 0x6e, 0x6e, 0x5f, 0x31,
  0x2f, 0x64, 0x73, 0x5f, 0x62, 0x6e, 0x5f, 0x31, 0x5f, 0x31, 0x2f, 0x62,
  0x61, 0x74, 0x63, 0x68, 0x6e, 0x6f, 0x72, 0x6d, 0x2f, 0x61, 0x64, 0x64,
  0x5f, 0x31, 0x3b, 0x74, 0x69, 0x6e, 0x79, 0x5f, 0x64, 0x73, 0x5f, 0x63,
  0x6e, 0x6e, 0x5f, 0x31, 0x2f, 0x64, 0x73, 0x5f, 0x63, 0x6f, 0x6e, 0x76,
  0x5f, 0x31, 0x5f, 0x31, 0x2f, 0x53, 0x71, 0x75, 0x65, 0x65, 0x7a, 0x65,
  0x3b, 0x74, 0x69, 0x6e, 0x79, 0x5f, 0x64, 0x73, 0x5f, 0x63, 0x6e, 0x6e,
  0x5f, 0x31, 0x2f, 0x64, 0x73, 0x5f, 0x62, 0x6e, 0x5f, 0x31, 0x5f, 0x31,
  0x2f, 0x62, 0x61, 0x74, 0x63, 0x68, 0x6e, 0x6f, 0x72, 0x6d, 0x2f, 0x6d,
  0x75, 0x6c, 0x5f, 0x31, 0x3b, 0x74, 0x69, 0x6e, 0x79, 0x5f, 0x64, 0x73,
  0x5f, 0x63, 0x6e, 0x6e, 0x5f, 0x31, 0x2f, 0x64, 0x73, 0x5f, 0x62, 0x6e,
  0x5f, 0x31, 0x5f, 0x31, 0x2f, 0x62, 0x61, 0x74, 0x63, 0x68, 0x6e, 0x6f,
  0x72, 0x6d, 0x2f, 0x6d, 0x75, 0x6c, 0x3b, 0x74, 0x69, 0x6e, 0x79, 0x5f,
  0x64, 0x73, 0x5f, 0x63, 0x6e, 0x6e, 0x5f, 0x31, 0x2f, 0x64, 0x73, 0x5f,
  0x62, 0x6e, 0x5f, 0x31, 0x5f, 0x31, 0x2f, 0x62, 0x61, 0x74, 0x63, 0x68,
  0x6e, 0x6f, 0x72, 0x6d, 0x2f, 0x73, 0x75, 0x62, 0x3b, 0x74, 0x69, 0x6e,
  0x79, 0x5f, 0x64, 0x73, 0x5f, 0x63, 0x6e, 0x6e, 0x5f, 0x31, 0x2f, 0x64,
  0x73, 0x5f, 0x63, 0x6f, 0x6e, 0x76, 0x5f, 0x31, 0x5f, 0x31, 0x2f, 0x73,
  0x65, 0x70, 0x61, 0x72, 0x61, 0x62, 0x6c, 0x65, 0x5f, 0x63, 0x6f, 0x6e,
  0x76, 0x32, 0x64, 0x00, 0x04, 0x00, 0x00, 0x00, 0x01, 0x00, 0x00, 0x00,
  0x01, 0x00, 0x00, 0x00, 0x80, 0x00, 0x00, 0x00, 0x18, 0x00, 0x00, 0x00,
  0x2a, 0xee, 0xff, 0xff, 0x00, 0x00, 0x00, 0x01, 0x14, 0x00, 0x00, 0x00,
  0x34, 0x00, 0x00, 0x00, 0x13, 0x00, 0x00, 0x00, 0x00, 0x00, 0x00, 0x09,
  0x64, 0x00, 0x00, 0x00, 0x14, 0xee, 0xff, 0xff, 0x08, 0x00, 0x00, 0x00,
  0x14, 0x00, 0x00, 0x00, 0x01, 0x00, 0x00, 0x00, 0xf0, 0xff, 0xff, 0xff,
  0xff, 0xff, 0xff, 0xff, 0x00, 0x00, 0x00, 0x00, 0x01, 0x00, 0x00, 0x00,
  0x1e, 0xcc, 0x01, 0x3d, 0x34, 0x00, 0x00, 0x00, 0x74, 0x69, 0x6e, 0x79,
  0x5f, 0x64, 0x73, 0x5f, 0x63, 0x6e, 0x6e, 0x5f, 0x31, 0x2f, 0x64, 0x73,
  0x5f, 0x63, 0x6f, 0x6e, 0x76, 0x5f, 0x31, 0x5f, 0x31, 0x2f, 0x73, 0x65,
  0x70, 0x61, 0x72, 0x61, 0x62, 0x6c, 0x65, 0x5f, 0x63, 0x6f, 0x6e, 0x76,
  0x32, 0x64, 0x2f, 0x64, 0x65, 0x70, 0x74, 0x68, 0x77, 0x69, 0x73, 0x65,
  0x00, 0x00, 0x00, 0x00, 0x04, 0x00, 0x00, 0x00, 0x01, 0x00, 0x00, 0x00,
  0x01, 0x00, 0x00, 0x00, 0x80, 0x00, 0x00, 0x00, 0x0c, 0x00, 0x00, 0x00,
  0xba, 0xee, 0xff, 0xff, 0x00, 0x00, 0x00, 0x01, 0x14, 0x00, 0x00, 0x00,
  0x34, 0x00, 0x00, 0x00, 0x12, 0x00, 0x00, 0x00, 0x00, 0x00, 0x00, 0x09,
  0x3c, 0x01, 0x00, 0x00, 0xa4, 0xee, 0xff, 0xff, 0x08, 0x00, 0x00, 0x00,
  0x14, 0x00, 0x00, 0x00, 0x01, 0x00, 0x00, 0x00, 0x80, 0xff, 0xff, 0xff,
  0xff, 0xff, 0xff, 0xff, 0x00, 0x00, 0x00, 0x00, 0x01, 0x00, 0x00, 0x00,
  0x37, 0x82, 0x42, 0x3d, 0x0e, 0x01, 0x00, 0x00, 0x74, 0x69, 0x6e, 0x79,
  0x5f, 0x64, 0x73, 0x5f, 0x63, 0x6e, 0x6e, 0x5f, 0x31, 0x2f, 0x73, 0x74,
  0x65, 0x6d, 0x5f, 0x72, 0x65, 0x6c, 0x75, 0x5f, 0x31, 0x2f, 0x52, 0x65,
  0x6c, 0x75, 0x3b, 0x74, 0x69, 0x6e, 0x79, 0x5f, 0x64, 0x73, 0x5f, 0x63,
  0x6e, 0x6e, 0x5f, 0x31, 0x2f, 0x73, 0x74, 0x65, 0x6d, 0x5f, 0x62, 0x6e,
  0x5f, 0x31, 0x2f, 0x62, 0x61, 0x74, 0x63, 0x68, 0x6e, 0x6f, 0x72, 0x6d,
  0x2f, 0x61, 0x64, 0x64, 0x5f, 0x31, 0x3b, 0x74, 0x69, 0x6e, 0x79, 0x5f,
  0x64, 0x73, 0x5f, 0x63, 0x6e, 0x6e, 0x5f, 0x31, 0x2f, 0x73, 0x74, 0x65,
  0x6d, 0x5f, 0x63, 0x6f, 0x6e, 0x76, 0x5f, 0x31, 0x2f, 0x63, 0x6f, 0x6e,
  0x76, 0x6f, 0x6c, 0x75, 0x74, 0x69, 0x6f, 0x6e, 0x2f, 0x53, 0x71, 0x75,
  0x65, 0x65, 0x7a, 0x65, 0x3b, 0x74, 0x69, 0x6e, 0x79, 0x5f, 0x64, 0x73,
  0x5f, 0x63, 0x6e, 0x6e, 0x5f, 0x31, 0x2f, 0x73, 0x74, 0x65, 0x6d, 0x5f,
  0x62, 0x6e, 0x5f, 0x31, 0x2f, 0x62, 0x61, 0x74, 0x63, 0x68, 0x6e, 0x6f,
  0x72, 0x6d, 0x2f, 0x6d, 0x75, 0x6c, 0x5f, 0x31, 0x3b, 0x74, 0x69, 0x6e,
  0x79, 0x5f, 0x64, 0x73, 0x5f, 0x63, 0x6e, 0x6e, 0x5f, 0x31, 0x2f, 0x73,
  0x74, 0x65, 0x6d, 0x5f, 0x62, 0x6e, 0x5f, 0x31, 0x2f, 0x62, 0x61, 0x74,
  0x63, 0x68, 0x6e, 0x6f, 0x72, 0x6d, 0x2f, 0x6d, 0x75, 0x6c, 0x3b, 0x74,
  0x69, 0x6e, 0x79, 0x5f, 0x64, 0x73, 0x5f, 0x63, 0x6e, 0x6e, 0x5f, 0x31,
  0x2f, 0x73, 0x74, 0x65, 0x6d, 0x5f, 0x62, 0x6e, 0x5f, 0x31, 0x2f, 0x62,
  0x61, 0x74, 0x63, 0x68, 0x6e, 0x6f, 0x72, 0x6d, 0x2f, 0x73, 0x75, 0x62,
  0x3b, 0x74, 0x69, 0x6e, 0x79, 0x5f, 0x64, 0x73, 0x5f, 0x63, 0x6e, 0x6e,
  0x5f, 0x31, 0x2f, 0x73, 0x74, 0x65, 0x6d, 0x5f, 0x63, 0x6f, 0x6e, 0x76,
  0x5f, 0x31, 0x2f, 0x63, 0x6f, 0x6e, 0x76, 0x6f, 0x6c, 0x75, 0x74, 0x69,
  0x6f, 0x6e, 0x00, 0x00, 0x04, 0x00, 0x00, 0x00, 0x01, 0x00, 0x00, 0x00,
  0x01, 0x00, 0x00, 0x00, 0x80, 0x00, 0x00, 0x00, 0x0c, 0x00, 0x00, 0x00,
  0x22, 0xf0, 0xff, 0xff, 0x00, 0x00, 0x00, 0x01, 0x14, 0x00, 0x00, 0x00,
  0x30, 0x00, 0x00, 0x00, 0x11, 0x00, 0x00, 0x00, 0x00, 0x00, 0x00, 0x09,
  0x5c, 0x00, 0x00, 0x00, 0x0c, 0xf0, 0xff, 0xff, 0x08, 0x00, 0x00, 0x00,
  0x10, 0x00, 0x00, 0x00, 0x01, 0x00, 0x00, 0x00, 0x0b, 0x00, 0x00, 0x00,
  0x00, 0x00, 0x00, 0x00, 0x01, 0x00, 0x00, 0x00, 0x1a, 0x52, 0x17, 0x3e,
  0x31, 0x00, 0x00, 0x00, 0x74, 0x69, 0x6e, 0x79, 0x5f, 0x64, 0x73, 0x5f,
  0x63, 0x6e, 0x6e, 0x5f, 0x31, 0x2f, 0x73, 0x74, 0x65, 0x6d, 0x5f, 0x63,
  0x6f, 0x6e, 0x76, 0x5f, 0x31, 0x2f, 0x63, 0x6f, 0x6e, 0x76, 0x6f, 0x6c,
  0x75, 0x74, 0x69, 0x6f, 0x6e, 0x2f, 0x45, 0x78, 0x70, 0x61, 0x6e, 0x64,
  0x44, 0x69, 0x6d, 0x73, 0x31, 0x00, 0x00, 0x00, 0x04, 0x00, 0x00, 0x00,
  0x01, 0x00, 0x00, 0x00, 0x01, 0x00, 0x00, 0x00, 0x80, 0x00, 0x00, 0x00,
  0x0a, 0x00, 0x00, 0x00, 0xaa, 0xf0, 0xff, 0xff, 0x00, 0x00, 0x00, 0x01,
  0x14, 0x00, 0x00, 0x00, 0xb8, 0x00, 0x00, 0x00, 0x10, 0x00, 0x00, 0x00,
  0x00, 0x00, 0x00, 0x09, 0xc4, 0x00, 0x00, 0x00, 0x94, 0xf0, 0xff, 0xff,
  0x08, 0x00, 0x00, 0x00, 0x6c, 0x00, 0x00, 0x00, 0x0c, 0x00, 0x00, 0x00,
  0x00, 0x00, 0x00, 0x00, 0x00, 0x00, 0x00, 0x00, 0x00, 0x00, 0x00, 0x00,
  0x00, 0x00, 0x00, 0x00, 0x00, 0x00, 0x00, 0x00, 0x00, 0x00, 0x00, 0x00,
  0x00, 0x00, 0x00, 0x00, 0x00, 0x00, 0x00, 0x00, 0x00, 0x00, 0x00, 0x00,
  0x00, 0x00, 0x00, 0x00, 0x00, 0x00, 0x00, 0x00, 0x00, 0x00, 0x00, 0x00,
  0x00, 0x00, 0x00, 0x00, 0x00, 0x00, 0x00, 0x00, 0x00, 0x00, 0x00, 0x00,
  0x00, 0x00, 0x00, 0x00, 0x00, 0x00, 0x00, 0x00, 0x00, 0x00, 0x00, 0x00,
  0x00, 0x00, 0x00, 0x00, 0x00, 0x00, 0x00, 0x00, 0x00, 0x00, 0x00, 0x00,
  0x00, 0x00, 0x00, 0x00, 0x00, 0x00, 0x00, 0x00, 0x00, 0x00, 0x00, 0x00,
  0x00, 0x00, 0x00, 0x00, 0x0c, 0x00, 0x00, 0x00, 0x32, 0x2a, 0x7a, 0x3b,
  0xb2, 0x28, 0x31, 0x3b, 0xfb, 0xde, 0x4b, 0x3b, 0x1e, 0x78, 0x22, 0x3b,
  0x15, 0x85, 0x68, 0x3b, 0x30, 0xeb, 0xee, 0x3a, 0x13, 0xe5, 0x17, 0x3b,
  0x94, 0x28, 0x8e, 0x3b, 0x1d, 0xc3, 0x74, 0x3b, 0x20, 0xe8, 0x24, 0x3b,
  0x14, 0x8e, 0x16, 0x3b, 0x30, 0x9c, 0x81, 0x3b, 0x13, 0x00, 0x00, 0x00,
  0x74, 0x66, 0x6c, 0x2e, 0x70, 0x73, 0x65, 0x75, 0x64, 0x6f, 0x5f, 0x71,
  0x63, 0x6f, 0x6e, 0x73, 0x74, 0x31, 0x31, 0x00, 0x04, 0x00, 0x00, 0x00,
  0x0c, 0x00, 0x00, 0x00, 0x01, 0x00, 0x00, 0x00, 0x03, 0x00, 0x00, 0x00,
  0x0a, 0x00, 0x00, 0x00, 0x9a, 0xf1, 0xff, 0xff, 0x00, 0x00, 0x00, 0x01,
  0x14, 0x00, 0x00, 0x00, 0xb8, 0x00, 0x00, 0x00, 0x0f, 0x00, 0x00, 0x00,
  0x00, 0x00, 0x00, 0x02, 0xc4, 0x00, 0x00, 0x00, 0x84, 0xf1, 0xff, 0xff,
  0x08, 0x00, 0x00, 0x00, 0x6c, 0x00, 0x00, 0x00, 0x0c, 0x00, 0x00, 0x00,
  0x00, 0x00, 0x00, 0x00, 0x00, 0x00, 0x00, 0x00, 0x00, 0x00, 0x00, 0x00,
  0x00, 0x00, 0x00, 0x00, 0x00, 0x00, 0x00, 0x00, 0x00, 0x00, 0x00, 0x00,
  0x00, 0x00, 0x00, 0x00, 0x00, 0x00, 0x00, 0x00, 0x00, 0x00, 0x00, 0x00,
  0x00, 0x00, 0x00, 0x00, 0x00, 0x00, 0x00, 0x00, 0x00, 0x00, 0x00, 0x00,
  0x00, 0x00, 0x00, 0x00, 0x00, 0x00, 0x00, 0x00, 0x00, 0x00, 0x00, 0x00,
  0x00, 0x00, 0x00, 0x00, 0x00, 0x00, 0x00, 0x00, 0x00, 0x00, 0x00, 0x00,
  0x00, 0x00, 0x00, 0x00, 0x00, 0x00, 0x00, 0x00, 0x00, 0x00, 0x00, 0x00,
  0x00, 0x00, 0x00, 0x00, 0x00, 0x00, 0x00, 0x00, 0x00, 0x00, 0x00, 0x00,
  0x00, 0x00, 0x00, 0x00, 0x0c, 0x00, 0x00, 0x00, 0x1e, 0xdf, 0x13, 0x3a,
  0xa4, 0x6f, 0xd1, 0x39, 0xd0, 0x03, 0xf1, 0x39, 0xe9, 0x11, 0xc0, 0x39,
  0x12, 0x71, 0x09, 0x3a, 0x59, 0x39, 0x8d, 0x39, 0xaa, 0x91, 0xb3, 0x39,
  0x0d, 0x0f, 0x28, 0x3a, 0x95, 0xad, 0x10, 0x3a, 0x9c, 0xf3, 0xc2, 0x39,
  0x2d, 0xfc, 0xb1, 0x39, 0x63, 0x39, 0x19, 0x3a, 0x13, 0x00, 0x00, 0x00,
  0x74, 0x66, 0x6c, 0x2e, 0x70, 0x73, 0x65, 0x75, 0x64, 0x6f, 0x5f, 0x71,
  0x63, 0x6f, 0x6e, 0x73, 0x74, 0x31, 0x30, 0x00, 0x01, 0x00, 0x00, 0x00,
  0x0c, 0x00, 0x00, 0x00, 0x7e, 0xf2, 0xff, 0xff, 0x00, 0x00, 0x00, 0x01,
  0x14, 0x00, 0x00, 0x00, 0xbc, 0x00, 0x00, 0x00, 0x0e, 0x00, 0x00, 0x00,
  0x00, 0x00, 0x00, 0x09, 0xc8, 0x00, 0x00, 0x00, 0x22, 0xfb, 0xff, 0xff,
  0x03, 0x00, 0x00, 0x00, 0x08, 0x00, 0x00, 0x00, 0x6c, 0x00, 0x00, 0x00,
  0x0c, 0x00, 0x00, 0x00, 0x00, 0x00, 0x00, 0x00, 0x00, 0x00, 0x00, 0x00,
  0x00, 0x00, 0x00, 0x00, 0x00, 0x00, 0x00, 0x00, 0x00, 0x00, 0x00, 0x00,
  0x00, 0x00, 0x00, 0x00, 0x00, 0x00, 0x00, 0x00, 0x00, 0x00, 0x00, 0x00,
  0x00, 0x00, 0x00, 0x00, 0x00, 0x00, 0x00, 0x00, 0x00, 0x00, 0x00, 0x00,
  0x00, 0x00, 0x00, 0x00, 0x00, 0x00, 0x00, 0x00, 0x00, 0x00, 0x00, 0x00,
  0x00, 0x00, 0x00, 0x00, 0x00, 0x00, 0x00, 0x00, 0x00, 0x00, 0x00, 0x00,
  0x00, 0x00, 0x00, 0x00, 0x00, 0x00, 0x00, 0x00, 0x00, 0x00, 0x00, 0x00,
  0x00, 0x00, 0x00, 0x00, 0x00, 0x00, 0x00, 0x00, 0x00, 0x00, 0x00, 0x00,
  0x00, 0x00, 0x00, 0x00, 0x00, 0x00, 0x00, 0x00, 0x0c, 0x00, 0x00, 0x00,
  0xe4, 0x65, 0x5d, 0x3b, 0x43, 0xae, 0xe8, 0x3a, 0x34, 0xf7, 0x0b, 0x3b,
  0xe5, 0x30, 0xec, 0x3a, 0x72, 0x06, 0x08, 0x3b, 0x27, 0x60, 0xd9, 0x3a,
  0xac, 0x60, 0x03, 0x3b, 0x52, 0x16, 0xca, 0x3a, 0x31, 0x9c, 0xe2, 0x3a,
  0xeb, 0xcd, 0xdb, 0x3a, 0x83, 0x7d, 0xca, 0x3a, 0xaf, 0x50, 0xec, 0x3a,
  0x12, 0x00, 0x00, 0x00, 0x74, 0x66, 0x6c, 0x2e, 0x70, 0x73, 0x65, 0x75,
  0x64, 0x6f, 0x5f, 0x71, 0x63, 0x6f, 0x6e, 0x73, 0x74, 0x39, 0x00, 0x00,
  0x04, 0x00, 0x00, 0x00, 0x01, 0x00, 0x00, 0x00, 0x01, 0x00, 0x00, 0x00,
  0x05, 0x00, 0x00, 0x00, 0x0c, 0x00, 0x00, 0x00, 0x72, 0xf3, 0xff, 0xff,
  0x00, 0x00, 0x00, 0x01, 0x14, 0x00, 0x00, 0x00, 0xb4, 0x00, 0x00, 0x00,
  0x0d, 0x00, 0x00, 0x00, 0x00, 0x00, 0x00, 0x02, 0xc0, 0x00, 0x00, 0x00,
  0x5c, 0xf3, 0xff, 0xff, 0x08, 0x00, 0x00, 0x00, 0x68, 0x00, 0x00, 0x00,
  0x0c, 0x00, 0x00, 0x00, 0x00, 0x00, 0x00, 0x00, 0x00, 0x00, 0x00, 0x00,
  0x00, 0x00, 0x00, 0x00, 0x00, 0x00, 0x00, 0x00, 0x00, 0x00, 0x00, 0x00,
  0x00, 0x00, 0x00, 0x00, 0x00, 0x00, 0x00, 0x00, 0x00, 0x00, 0x00, 0x00,
  0x00, 0x00, 0x00, 0x00, 0x00, 0x00, 0x00, 0x00, 0x00, 0x00, 0x00, 0x00,
  0x00, 0x00, 0x00, 0x00, 0x00, 0x00, 0x00, 0x00, 0x00, 0x00, 0x00, 0x00,
  0x00, 0x00, 0x00, 0x00, 0x00, 0x00, 0x00, 0x00, 0x00, 0x00, 0x00, 0x00,
  0x00, 0x00, 0x00, 0x00, 0x00, 0x00, 0x00, 0x00, 0x00, 0x00, 0x00, 0x00,
  0x00, 0x00, 0x00, 0x00, 0x00, 0x00, 0x00, 0x00, 0x00, 0x00, 0x00, 0x00,
  0x00, 0x00, 0x00, 0x00, 0x0c, 0x00, 0x00, 0x00, 0xd4, 0x37, 0x28, 0x39,
  0x69, 0xca, 0xb0, 0x38, 0x0e, 0xb1, 0xd4, 0x38, 0x31, 0x75, 0xb3, 0x38,
  0x26, 0xb4, 0xce, 0x38, 0x6f, 0x29, 0xa5, 0x38, 0x2b, 0xa4, 0xc7, 0x38,
  0xb5, 0x8b, 0x99, 0x38, 0xa1, 0x2d, 0xac, 0x38, 0xda, 0x01, 0xa7, 0x38,
  0x1d, 0xda, 0x99, 0x38, 0x58, 0x8d, 0xb3, 0x38, 0x12, 0x00, 0x00, 0x00,
  0x74, 0x66, 0x6c, 0x2e, 0x70, 0x73, 0x65, 0x75, 0x64, 0x6f, 0x5f, 0x71,
  0x63, 0x6f, 0x6e, 0x73, 0x74, 0x38, 0x00, 0x00, 0x01, 0x00, 0x00, 0x00,
  0x0c, 0x00, 0x00, 0x00, 0x52, 0xf4, 0xff, 0xff, 0x00, 0x00, 0x00, 0x01,
  0x14, 0x00, 0x00, 0x00, 0x48, 0x01, 0x00, 0x00, 0x0c, 0x00, 0x00, 0x00,
  0x00, 0x00, 0x00, 0x09, 0x54, 0x01, 0x00, 0x00, 0x3c, 0xf4, 0xff, 0xff,
  0x08, 0x00, 0x00, 0x00, 0xcc, 0x00, 0x00, 0x00, 0x18, 0x00, 0x00, 0x00,
  0x00, 0x00, 0x00, 0x00, 0x00, 0x00, 0x00, 0x00, 0x00, 0x00, 0x00, 0x00,
  0x00, 0x00, 0x00, 0x00, 0x00, 0x00, 0x00, 0x00, 0x00, 0x00, 0x00, 0x00,
  0x00, 0x00, 0x00, 0x00, 0x00, 0x00, 0x00, 0x00, 0x00, 0x00, 0x00, 0x00,
  0x00, 0x00, 0x00, 0x00, 0x00, 0x00, 0x00, 0x00, 0x00, 0x00, 0x00, 0x00,
  0x00, 0x00, 0x00, 0x00, 0x00, 0x00, 0x00, 0x00, 0x00, 0x00, 0x00, 0x00,
  0x00, 0x00, 0x00, 0x00, 0x00, 0x00, 0x00, 0x00, 0x00, 0x00, 0x00, 0x00,
  0x00, 0x00, 0x00, 0x00, 0x00, 0x00, 0x00, 0x00, 0x00, 0x00, 0x00, 0x00,
  0x00, 0x00, 0x00, 0x00, 0x00, 0x00, 0x00, 0x00, 0x00, 0x00, 0x00, 0x00,
  0x00, 0x00, 0x00, 0x00, 0x00, 0x00, 0x00, 0x00, 0x00, 0x00, 0x00, 0x00,
  0x00, 0x00, 0x00, 0x00, 0x00, 0x00, 0x00, 0x00, 0x00, 0x00, 0x00, 0x00,
  0x00, 0x00, 0x00, 0x00, 0x00, 0x00, 0x00, 0x00, 0x00, 0x00, 0x00, 0x00,
  0x00, 0x00, 0x00, 0x00, 0x00, 0x00, 0x00, 0x00, 0x00, 0x00, 0x00, 0x00,
  0x00, 0x00, 0x00, 0x00, 0x00, 0x00, 0x00, 0x00, 0x00, 0x00, 0x00, 0x00,
  0x00, 0x00, 0x00, 0x00, 0x00, 0x00, 0x00, 0x00, 0x00, 0x00, 0x00, 0x00,
  0x00, 0x00, 0x00, 0x00, 0x00, 0x00, 0x00, 0x00, 0x00, 0x00, 0x00, 0x00,
  0x00, 0x00, 0x00, 0x00, 0x00, 0x00, 0x00, 0x00, 0x00, 0x00, 0x00, 0x00,
  0x00, 0x00, 0x00, 0x00, 0x18, 0x00, 0x00, 0x00, 0xeb, 0x34, 0xae, 0x3c,
  0x7c, 0xf7, 0x7a, 0x3c, 0x71, 0x14, 0xca, 0x3c, 0xc9, 0x36, 0x5e, 0x3c,
  0x7f, 0xb4, 0x9c, 0x3c, 0xd6, 0xb5, 0x8c, 0x3c, 0x35, 0x39, 0x96, 0x3c,
  0x75, 0x29, 0xee, 0x3c, 0x12, 0x5d, 0x94, 0x3c, 0x68, 0xd6, 0x4b, 0x3c,
  0xec, 0x29, 0x07, 0x3d, 0x45, 0x8d, 0xce, 0x3c, 0x71, 0x08, 0xd7, 0x3c,
  0x85, 0x3f, 0xa7, 0x3c, 0x8d, 0x26, 0xe9, 0x3c, 0x1c, 0x8d, 0x75, 0x3c,
  0x21, 0xfb, 0xeb, 0x3c, 0x86, 0xee, 0xae, 0x3c, 0x20, 0x96, 0xec, 0x3c,
  0x21, 0xa1, 0x95, 0x3c, 0xe1, 0x36, 0xb7, 0x3c, 0x9f, 0xd0, 0x73, 0x3c,
  0xfa, 0x8f, 0xa5, 0x3c, 0x36, 0xa7, 0x02, 0x3d, 0x12, 0x00, 0x00, 0x00,
  0x74, 0x66, 0x6c, 0x2e, 0x70, 0x73, 0x65, 0x75, 0x64, 0x6f, 0x5f, 0x71,
  0x63, 0x6f, 0x6e, 0x73, 0x74, 0x37, 0x00, 0x00, 0x04, 0x00, 0x00, 0x00,
  0x18, 0x00, 0x00, 0x00, 0x01, 0x00, 0x00, 0x00, 0x01, 0x00, 0x00, 0x00,
  0x0c, 0x00, 0x00, 0x00, 0xd2, 0xf5, 0xff, 0xff, 0x00, 0x00, 0x00, 0x01,
  0x14, 0x00, 0x00, 0x00, 0x44, 0x01, 0x00, 0x00, 0x0b, 0x00, 0x00, 0x00,
  0x00, 0x00, 0x00, 0x02, 0x50, 0x01, 0x00, 0x00, 0xbc, 0xf5, 0xff, 0xff,
  0x08, 0x00, 0x00, 0x00, 0xc8, 0x00, 0x00, 0x00, 0x18, 0x00, 0x00, 0x00,
  0x00, 0x00, 0x00, 0x00, 0x00, 0x00, 0x00, 0x00, 0x00, 0x00, 0x00, 0x00,
  0x00, 0x00, 0x00, 0x00, 0x00, 0x00, 0x00, 0x00, 0x00, 0x00, 0x00, 0x00,
  0x00, 0x00, 0x00, 0x00, 0x00, 0x00, 0x00, 0x00, 0x00, 0x00, 0x00, 0x00,
  0x00, 0x00, 0x00, 0x00, 0x00, 0x00, 0x00, 0x00, 0x00, 0x00, 0x00, 0x00,
  0x00, 0x00, 0x00, 0x00, 0x00, 0x00, 0x00, 0x00, 0x00, 0x00, 0x00, 0x00,
  0x00, 0x00, 0x00, 0x00, 0x00, 0x00, 0x00, 0x00, 0x00, 0x00, 0x00, 0x00,
  0x00, 0x00, 0x00, 0x00, 0x00, 0x00, 0x00, 0x00, 0x00, 0x00, 0x00, 0x00,
  0x00, 0x00, 0x00, 0x00, 0x00, 0x00, 0x00, 0x00, 0x00, 0x00, 0x00, 0x00,
  0x00, 0x00, 0x00, 0x00, 0x00, 0x00, 0x00, 0x00, 0x00, 0x00, 0x00, 0x00,
  0x00, 0x00, 0x00, 0x00, 0x00, 0x00, 0x00, 0x00, 0x00, 0x00, 0x00, 0x00,
  0x00, 0x00, 0x00, 0x00, 0x00, 0x00, 0x00, 0x00, 0x00, 0x00, 0x00, 0x00,
  0x00, 0x00, 0x00, 0x00, 0x00, 0x00, 0x00, 0x00, 0x00, 0x00, 0x00, 0x00,
  0x00, 0x00, 0x00, 0x00, 0x00, 0x00, 0x00, 0x00, 0x00, 0x00, 0x00, 0x00,
  0x00, 0x00, 0x00, 0x00, 0x00, 0x00, 0x00, 0x00, 0x00, 0x00, 0x00, 0x00,
  0x00, 0x00, 0x00, 0x00, 0x00, 0x00, 0x00, 0x00, 0x00, 0x00, 0x00, 0x00,
  0x00, 0x00, 0x00, 0x00, 0x00, 0x00, 0x00, 0x00, 0x00, 0x00, 0x00, 0x00,
  0x18, 0x00, 0x00, 0x00, 0x22, 0xa7, 0x30, 0x3a, 0xa0, 0x7d, 0xfe, 0x39,
  0xda, 0xea, 0x4c, 0x3a, 0x92, 0x55, 0xe1, 0x39, 0xcc, 0xe7, 0x1e, 0x3a,
  0xa4, 0xaf, 0x0e, 0x3a, 0x36, 0x55, 0x18, 0x3a, 0x92, 0x81, 0x71, 0x3a,
  0x63, 0x72, 0x16, 0x3a, 0x22, 0xb3, 0xce, 0x39, 0xca, 0x0f, 0x89, 0x3a,
  0xc1, 0x73, 0x51, 0x3a, 0x6a, 0x0d, 0x5a, 0x3a, 0xb8, 0x98, 0x29, 0x3a,
  0xa6, 0x6c, 0x6c, 0x3a, 0xc9, 0xff, 0xf8, 0x39, 0x67, 0x4b, 0x6f, 0x3a,
  0x58, 0x63, 0x31, 0x3a, 0x93, 0xe8, 0x6f, 0x3a, 0xff, 0xba, 0x17, 0x3a,
  0x79, 0xc9, 0x39, 0x3a, 0x0e, 0x3d, 0xf7, 0x39, 0x1e, 0xe3, 0x27, 0x3a,
  0xde, 0x7c, 0x84, 0x3a, 0x12, 0x00, 0x00, 0x00, 0x74, 0x66, 0x6c, 0x2e,
  0x70, 0x73, 0x65, 0x75, 0x64, 0x6f, 0x5f, 0x71, 0x63, 0x6f, 0x6e, 0x73,
  0x74, 0x36, 0x00, 0x00, 0x01, 0x00, 0x00, 0x00, 0x18, 0x00, 0x00, 0x00,
  0x00, 0x00, 0x16, 0x00, 0x1e, 0x00, 0x18, 0x00, 0x17, 0x00, 0x10, 0x00,
  0x0c, 0x00, 0x08, 0x00, 0x00, 0x00, 0x00, 0x00, 0x00, 0x00, 0x07, 0x00,
  0x16, 0x00, 0x00, 0x00, 0x00, 0x00, 0x00, 0x01, 0x28, 0x00, 0x00, 0x00,
  0x60, 0x01, 0x00, 0x00, 0x0a, 0x00, 0x00, 0x00, 0x00, 0x00, 0x00, 0x09,
  0x6c, 0x01, 0x00, 0x00, 0x00, 0x00, 0x12, 0x00, 0x10, 0x00, 0x00, 0x00,
  0x00, 0x00, 0x0c, 0x00, 0x08, 0x00, 0x00, 0x00, 0x00, 0x00, 0x04, 0x00,
  0x12, 0x00, 0x00, 0x00, 0x03, 0x00, 0x00, 0x00, 0x08, 0x00, 0x00, 0x00,
  0xcc, 0x00, 0x00, 0x00, 0x18, 0x00, 0x00, 0x00, 0x00, 0x00, 0x00, 0x00,
  0x00, 0x00, 0x00, 0x00, 0x00, 0x00, 0x00, 0x00, 0x00, 0x00, 0x00, 0x00,
  0x00, 0x00, 0x00, 0x00, 0x00, 0x00, 0x00, 0x00, 0x00, 0x00, 0x00, 0x00,
  0x00, 0x00, 0x00, 0x00, 0x00, 0x00, 0x00, 0x00, 0x00, 0x00, 0x00, 0x00,
  0x00, 0x00, 0x00, 0x00, 0x00, 0x00, 0x00, 0x00, 0x00, 0x00, 0x00, 0x00,
  0x00, 0x00, 0x00, 0x00, 0x00, 0x00, 0x00, 0x00, 0x00, 0x00, 0x00, 0x00,
  0x00, 0x00, 0x00, 0x00, 0x00, 0x00, 0x00, 0x00, 0x00, 0x00, 0x00, 0x00,
  0x00, 0x00, 0x00, 0x00, 0x00, 0x00, 0x00, 0x00, 0x00, 0x00, 0x00, 0x00,
  0x00, 0x00, 0x00, 0x00, 0x00, 0x00, 0x00, 0x00, 0x00, 0x00, 0x00, 0x00,
  0x00, 0x00, 0x00, 0x00, 0x00, 0x00, 0x00, 0x00, 0x00, 0x00, 0x00, 0x00,
  0x00, 0x00, 0x00, 0x00, 0x00, 0x00, 0x00, 0x00, 0x00, 0x00, 0x00, 0x00,
  0x00, 0x00, 0x00, 0x00, 0x00, 0x00, 0x00, 0x00, 0x00, 0x00, 0x00, 0x00,
  0x00, 0x00, 0x00, 0x00, 0x00, 0x00, 0x00, 0x00, 0x00, 0x00, 0x00, 0x00,
  0x00, 0x00, 0x00, 0x00, 0x00, 0x00, 0x00, 0x00, 0x00, 0x00, 0x00, 0x00,
  0x00, 0x00, 0x00, 0x00, 0x00, 0x00, 0x00, 0x00, 0x00, 0x00, 0x00, 0x00,
  0x00, 0x00, 0x00, 0x00, 0x00, 0x00, 0x00, 0x00, 0x00, 0x00, 0x00, 0x00,
  0x00, 0x00, 0x00, 0x00, 0x00, 0x00, 0x00, 0x00, 0x00, 0x00, 0x00, 0x00,
  0x18, 0x00, 0x00, 0x00, 0xe4, 0xbf, 0xa3, 0x3a, 0x81, 0xb2, 0xd4, 0x3a,
  0xf1, 0x00, 0xa7, 0x3a, 0x6b, 0xe8, 0xa3, 0x3a, 0x0e, 0xe5, 0xc1, 0x3a,
  0xac, 0x4e, 0x92, 0x3a, 0xe1, 0x41, 0xcf, 0x3a, 0x86, 0x04, 0x05, 0x3b,
  0xb4, 0x12, 0xaa, 0x3a, 0xea, 0xe6, 0x29, 0x3b, 0xe5, 0xbe, 0xaf, 0x3a,
  0xb4, 0x6f, 0x16, 0x3b, 0x90, 0x85, 0xd3, 0x3a, 0xd0, 0x19, 0xec, 0x3a,
  0x8e, 0xd5, 0xe5, 0x3a, 0x1c, 0xde, 0xd1, 0x3a, 0x6a, 0xa6, 0x80, 0x3a,
  0xbe, 0xfb, 0x9d, 0x3a, 0x81, 0x91, 0xfe, 0x3a, 0x46, 0x9e, 0xa6, 0x3a,
  0x83, 0xc0, 0xb4, 0x3a, 0x36, 0x85, 0xec, 0x3a, 0x19, 0xcb, 0x2d, 0x3b,
  0x8c, 0x60, 0x16, 0x3b, 0x12, 0x00, 0x00, 0x00, 0x74, 0x66, 0x6c, 0x2e,
  0x70, 0x73, 0x65, 0x75, 0x64, 0x6f, 0x5f, 0x71, 0x63, 0x6f, 0x6e, 0x73,
  0x74, 0x35, 0x00, 0x00, 0x04, 0x00, 0x00, 0x00, 0x01, 0x00, 0x00, 0x00,
  0x01, 0x00, 0x00, 0x00, 0x05, 0x00, 0x00, 0x00, 0x18, 0x00, 0x00, 0x00,
  0xf2, 0xf8, 0xff, 0xff, 0x00, 0x00, 0x00, 0x01, 0x14, 0x00, 0x00, 0x00,
  0x44, 0x01, 0x00, 0x00, 0x09, 0x00, 0x00, 0x00, 0x00, 0x00, 0x00, 0x02,
  0x50, 0x01, 0x00, 0x00, 0xdc, 0xf8, 0xff, 0xff, 0x08, 0x00, 0x00, 0x00,
  0xc8, 0x00, 0x00, 0x00, 0x18, 0x00, 0x00, 0x00, 0x00, 0x00, 0x00, 0x00,
  0x00, 0x00, 0x00, 0x00, 0x00, 0x00, 0x00, 0x00, 0x00, 0x00, 0x00, 0x00,
  0x00, 0x00, 0x00, 0x00, 0x00, 0x00, 0x00, 0x00, 0x00, 0x00, 0x00, 0x00,
  0x00, 0x00, 0x00, 0x00, 0x00, 0x00, 0x00, 0x00, 0x00, 0x00, 0x00, 0x00,
  0x00, 0x00, 0x00, 0x00, 0x00, 0x00, 0x00, 0x00, 0x00, 0x00, 0x00, 0x00,
  0x00, 0x00, 0x00, 0x00, 0x00, 0x00, 0x00, 0x00, 0x00, 0x00, 0x00, 0x00,
  0x00, 0x00, 0x00, 0x00, 0x00, 0x00, 0x00, 0x00, 0x00, 0x00, 0x00, 0x00,
  0x00, 0x00, 0x00, 0x00, 0x00, 0x00, 0x00, 0x00, 0x00, 0x00, 0x00, 0x00,
  0x00, 0x00, 0x00, 0x00, 0x00, 0x00, 0x00, 0x00, 0x00, 0x00, 0x00, 0x00,
  0x00, 0x00, 0x00, 0x00, 0x00, 0x00, 0x00, 0x00, 0x00, 0x00, 0x00, 0x00,
  0x00, 0x00, 0x00, 0x00, 0x00, 0x00, 0x00, 0x00, 0x00, 0x00, 0x00, 0x00,
  0x00, 0x00, 0x00, 0x00, 0x00, 0x00, 0x00, 0x00, 0x00, 0x00, 0x00, 0x00,
  0x00, 0x00, 0x00, 0x00, 0x00, 0x00, 0x00, 0x00, 0x00, 0x00, 0x00, 0x00,
  0x00, 0x00, 0x00, 0x00, 0x00, 0x00, 0x00, 0x00, 0x00, 0x00, 0x00, 0x00,
  0x00, 0x00, 0x00, 0x00, 0x00, 0x00, 0x00, 0x00, 0x00, 0x00, 0x00, 0x00,
  0x00, 0x00, 0x00, 0x00, 0x00, 0x00, 0x00, 0x00, 0x00, 0x00, 0x00, 0x00,
  0x00, 0x00, 0x00, 0x00, 0x00, 0x00, 0x00, 0x00, 0x18, 0x00, 0x00, 0x00,
  0xb8, 0x6d, 0x5f, 0x38, 0x93, 0x1b, 0x91, 0x38, 0x61, 0xde, 0x63, 0x38,
  0x04, 0xa5, 0x5f, 0x38, 0xb7, 0x47, 0x84, 0x38, 0x23, 0xa1, 0x47, 0x38,
  0x7d, 0x65, 0x8d, 0x38, 0x11, 0x7f, 0xb5, 0x38, 0x83, 0x0e, 0x68, 0x38,
  0xc4, 0xd2, 0xe7, 0x38, 0xf6, 0xcb, 0x6f, 0x38, 0x68, 0x43, 0xcd, 0x38,
  0x44, 0x4e, 0x90, 0x38, 0x01, 0x13, 0xa1, 0x38, 0x8a, 0xcc, 0x9c, 0x38,
  0x60, 0x2d, 0x8f, 0x38, 0x75, 0x89, 0x2f, 0x38, 0x95, 0x8f, 0x57, 0x38,
  0x5c, 0xac, 0xad, 0x38, 0xc0, 0x57, 0x63, 0x38, 0xaa, 0xa0, 0x76, 0x38,
  0x46, 0x5c, 0xa1, 0x38, 0x03, 0x22, 0xed, 0x38, 0xba, 0x2e, 0xcd, 0x38,
  0x12, 0x00, 0x00, 0x00, 0x74, 0x66, 0x6c, 0x2e, 0x70, 0x73, 0x65, 0x75,
  0x64, 0x6f, 0x5f, 0x71, 0x63, 0x6f, 0x6e, 0x73, 0x74, 0x34, 0x00, 0x00,
  0x01, 0x00, 0x00, 0x00, 0x18, 0x00, 0x00, 0x00, 0x62, 0xfa, 0xff, 0xff,
  0x00, 0x00, 0x00, 0x01, 0x14, 0x00, 0x00, 0x00, 0xa8, 0x01, 0x00, 0x00,
  0x08, 0x00, 0x00, 0x00, 0x00, 0x00, 0x00, 0x09, 0xb4, 0x01, 0x00, 0x00,
  0x4c, 0xfa, 0xff, 0xff, 0x08, 0x00, 0x00, 0x00, 0x0c, 0x01, 0x00, 0x00,
  0x20, 0x00, 0x00, 0x00, 0x00, 0x00, 0x00, 0x00, 0x00, 0x00, 0x00, 0x00,
  0x00, 0x00, 0x00, 0x00, 0x00, 0x00, 0x00, 0x00, 0x00, 0x00, 0x00, 0x00,
  0x00, 0x00, 0x00, 0x00, 0x00, 0x00, 0x00, 0x00, 0x00, 0x00, 0x00, 0x00,
  0x00, 0x00, 0x00, 0x00, 0x00, 0x00, 0x00, 0x00, 0x00, 0x00, 0x00, 0x00,
  0x00, 0x00, 0x00, 0x00, 0x00, 0x00, 0x00, 0x00, 0x00, 0x00, 0x00, 0x00,
  0x00, 0x00, 0x00, 0x00, 0x00, 0x00, 0x00, 0x00, 0x00, 0x00, 0x00, 0x00,
  0x00, 0x00, 0x00, 0x00, 0x00, 0x00, 0x00, 0x00, 0x00, 0x00, 0x00, 0x00,
  0x00, 0x00, 0x00, 0x00, 0x00, 0x00, 0x00, 0x00, 0x00, 0x00, 0x00, 0x00,
  0x00, 0x00, 0x00, 0x00, 0x00, 0x00, 0x00, 0x00, 0x00, 0x00, 0x00, 0x00,
  0x00, 0x00, 0x00, 0x00, 0x00, 0x00, 0x00, 0x00, 0x00, 0x00, 0x00, 0x00,
  0x00, 0x00, 0x00, 0x00, 0x00, 0x00, 0x00, 0x00, 0x00, 0x00, 0x00, 0x00,
  0x00, 0x00, 0x00, 0x00, 0x00, 0x00, 0x00, 0x00, 0x00, 0x00, 0x00, 0x00,
  0x00, 0x00, 0x00, 0x00, 0x00, 0x00, 0x00, 0x00, 0x00, 0x00, 0x00, 0x00,
  0x00, 0x00, 0x00, 0x00, 0x00, 0x00, 0x00, 0x00, 0x00, 0x00, 0x00, 0x00,
  0x00, 0x00, 0x00, 0x00, 0x00, 0x00, 0x00, 0x00, 0x00, 0x00, 0x00, 0x00,
  0x00, 0x00, 0x00, 0x00, 0x00, 0x00, 0x00, 0x00, 0x00, 0x00, 0x00, 0x00,
  0x00, 0x00, 0x00, 0x00, 0x00, 0x00, 0x00, 0x00, 0x00, 0x00, 0x00, 0x00,
  0x00, 0x00, 0x00, 0x00, 0x00, 0x00, 0x00, 0x00, 0x00, 0x00, 0x00, 0x00,
  0x00, 0x00, 0x00, 0x00, 0x00, 0x00, 0x00, 0x00, 0x00, 0x00, 0x00, 0x00,
  0x00, 0x00, 0x00, 0x00, 0x00, 0x00, 0x00, 0x00, 0x00, 0x00, 0x00, 0x00,
  0x00, 0x00, 0x00, 0x00, 0x00, 0x00, 0x00, 0x00, 0x00, 0x00, 0x00, 0x00,
  0x00, 0x00, 0x00, 0x00, 0x00, 0x00, 0x00, 0x00, 0x00, 0x00, 0x00, 0x00,
  0x20, 0x00, 0x00, 0x00, 0xfc, 0x74, 0x08, 0x3d, 0x6b, 0x5b, 0x29, 0x3d,
  0x60, 0x3d, 0x98, 0x3c, 0xf5, 0x21, 0xfd, 0x3c, 0x4c, 0xab, 0xe5, 0x3c,
  0x66, 0xcb, 0xb8, 0x3c, 0x3d, 0x62, 0xfb, 0x3c, 0xfe, 0xf8, 0xcd, 0x3c,
  0x2e, 0x85, 0xe7, 0x3c, 0x23, 0x37, 0x5d, 0x3c, 0x63, 0x50, 0xd6, 0x3c,
  0xc3, 0x3f, 0x14, 0x3d, 0x38, 0xed, 0xc9, 0x3c, 0x4c, 0x50, 0xe5, 0x3c,
  0x89, 0x19, 0x11, 0x3d, 0xa9, 0x93, 0xbb, 0x3c, 0xa9, 0xaf, 0xab, 0x3c,
  0xb5, 0xc6, 0xcc, 0x3c, 0x72, 0x3c, 0x8c, 0x3c, 0x61, 0x74, 0xa5, 0x3c,
  0x98, 0x68, 0xdf, 0x3c, 0x08, 0x50, 0x9b, 0x3c, 0xa7, 0xd0, 0x2a, 0x3c,
  0x9e, 0x71, 0x9b, 0x3c, 0xa4, 0xe4, 0x85, 0x3c, 0xa0, 0xbe, 0xa9, 0x3c,
  0xa5, 0x18, 0xc8, 0x3c, 0x59, 0x31, 0x81, 0x3c, 0x54, 0xa7, 0x0c, 0x3d,
  0xd8, 0xd9, 0x8f, 0x3c, 0x10, 0xef, 0x9c, 0x3c, 0xba, 0x83, 0x12, 0x3d,
  0x12, 0x00, 0x00, 0x00, 0x74, 0x66, 0x6c, 0x2e, 0x70, 0x73, 0x65, 0x75,
  0x64, 0x6f, 0x5f, 0x71, 0x63, 0x6f, 0x6e, 0x73, 0x74, 0x33, 0x00, 0x00,
  0x04, 0x00, 0x00, 0x00, 0x20, 0x00, 0x00, 0x00, 0x01, 0x00, 0x00, 0x00,
  0x01, 0x00, 0x00, 0x00, 0x18, 0x00, 0x00, 0x00, 0x42, 0xfc, 0xff, 0xff,
  0x00, 0x00, 0x00, 0x01, 0x14, 0x00, 0x00, 0x00, 0xa4, 0x01, 0x00, 0x00,
  0x07, 0x00, 0x00, 0x00, 0x00, 0x00, 0x00, 0x02, 0xb0, 0x01, 0x00, 0x00,
  0x2c, 0xfc, 0xff, 0xff, 0x08, 0x00, 0x00, 0x00, 0x08, 0x01, 0x00, 0x00,
  0x20, 0x00, 0x00, 0x00, 0x00, 0x00, 0x00, 0x00, 0x00, 0x00, 0x00, 0x00,
  0x00, 0x00, 0x00, 0x00, 0x00, 0x00, 0x00, 0x00, 0x00, 0x00, 0x00, 0x00,
  0x00, 0x00, 0x00, 0x00, 0x00, 0x00, 0x00, 0x00, 0x00, 0x00, 0x00, 0x00,
  0x00, 0x00, 0x00, 0x00, 0x00, 0x00, 0x00, 0x00, 0x00, 0x00, 0x00, 0x00,
  0x00, 0x00, 0x00, 0x00, 0x00, 0x00, 0x00, 0x00, 0x00, 0x00, 0x00, 0x00,
  0x00, 0x00, 0x00, 0x00, 0x00, 0x00, 0x00, 0x00, 0x00, 0x00, 0x00, 0x00,
  0x00, 0x00, 0x00, 0x00, 0x00, 0x00, 0x00, 0x00, 0x00, 0x00, 0x00, 0x00,
  0x00, 0x00, 0x00, 0x00, 0x00, 0x00, 0x00, 0x00, 0x00, 0x00, 0x00, 0x00,
  0x00, 0x00, 0x00, 0x00, 0x00, 0x00, 0x00, 0x00, 0x00, 0x00, 0x00, 0x00,
  0x00, 0x00, 0x00, 0x00, 0x00, 0x00, 0x00, 0x00, 0x00, 0x00, 0x00, 0x00,
  0x00, 0x00, 0x00, 0x00, 0x00, 0x00, 0x00, 0x00, 0x00, 0x00, 0x00, 0x00,
  0x00, 0x00, 0x00, 0x00, 0x00, 0x00, 0x00, 0x00, 0x00, 0x00, 0x00, 0x00,
  0x00, 0x00, 0x00, 0x00, 0x00, 0x00, 0x00, 0x00, 0x00, 0x00, 0x00, 0x00,
  0x00, 0x00, 0x00, 0x00, 0x00, 0x00, 0x00, 0x00, 0x00, 0x00, 0x00, 0x00,
  0x00, 0x00, 0x00, 0x00, 0x00, 0x00, 0x00, 0x00, 0x00, 0x00, 0x00, 0x00,
  0x00, 0x00, 0x00, 0x00, 0x00, 0x00, 0x00, 0x00, 0x00, 0x00, 0x00, 0x00,
  0x00, 0x00, 0x00, 0x00, 0x00, 0x00, 0x00, 0x00, 0x00, 0x00, 0x00, 0x00,
  0x00, 0x00, 0x00, 0x00, 0x00, 0x00, 0x00, 0x00, 0x00, 0x00, 0x00, 0x00,
  0x00, 0x00, 0x00, 0x00, 0x00, 0x00, 0x00, 0x00, 0x00, 0x00, 0x00, 0x00,
  0x00, 0x00, 0x00, 0x00, 0x00, 0x00, 0x00, 0x00, 0x00, 0x00, 0x00, 0x00,
  0x00, 0x00, 0x00, 0x00, 0x00, 0x00, 0x00, 0x00, 0x00, 0x00, 0x00, 0x00,
  0x00, 0x00, 0x00, 0x00, 0x00, 0x00, 0x00, 0x00, 0x20, 0x00, 0x00, 0x00,
  0x25, 0x0c, 0x7d, 0x3a, 0x67, 0x07, 0x9d, 0x3a, 0x59, 0x28, 0x0d, 0x3a,
  0xc3, 0xb4, 0x6a, 0x3a, 0x5a, 0xf3, 0x54, 0x3a, 0xb4, 0x57, 0x2b, 0x3a,
  0xa2, 0x15, 0x69, 0x3a, 0xa3, 0xfa, 0x3e, 0x3a, 0xbd, 0xaa, 0x56, 0x3a,
  0xbb, 0x1c, 0xcd, 0x39, 0x96, 0xb6, 0x46, 0x3a, 0x1a, 0x75, 0x89, 0x3a,
  0x43, 0x3a, 0x3b, 0x3a, 0xfa, 0x9e, 0x54, 0x3a, 0x90, 0x89, 0x86, 0x3a,
  0x1e, 0xec, 0x2d, 0x3a, 0x3e, 0x30, 0x1f, 0x3a, 0xa6, 0xde, 0x3d, 0x3a,
  0x1c, 0x07, 0x02, 0x3a, 0x16, 0x69, 0x19, 0x3a, 0x51, 0x25, 0x4f, 0x3a,
  0xbd, 0x01, 0x10, 0x3a, 0x78, 0x61, 0x9e, 0x39, 0xe1, 0x20, 0x10, 0x3a,
  0x03, 0x4b, 0xf8, 0x39, 0x63, 0x63, 0x1d, 0x3a, 0xcc, 0x87, 0x39, 0x3a,
  0x9d, 0x93, 0xef, 0x39, 0x36, 0x6a, 0x82, 0x3a, 0x24, 0x61, 0x05, 0x3a,
  0x8f, 0x82, 0x11, 0x3a, 0x63, 0xd9, 0x87, 0x3a, 0x12, 0x00, 0x00, 0x00,
  0x74, 0x66, 0x6c, 0x2e, 0x70, 0x73, 0x65, 0x75, 0x64, 0x6f, 0x5f, 0x71,
  0x63, 0x6f, 0x6e, 0x73, 0x74, 0x32, 0x00, 0x00, 0x01, 0x00, 0x00, 0x00,
  0x20, 0x00, 0x00, 0x00, 0x12, 0xfe, 0xff, 0xff, 0x00, 0x00, 0x00, 0x01,
  0x14, 0x00, 0x00, 0x00, 0x70, 0x00, 0x00, 0x00, 0x06, 0x00, 0x00, 0x00,
  0x00, 0x00, 0x00, 0x09, 0x7c, 0x00, 0x00, 0x00, 0xfc, 0xfd, 0xff, 0xff,
  0x08, 0x00, 0x00, 0x00, 0x3c, 0x00, 0x00, 0x00, 0x06, 0x00, 0x00, 0x00,
  0x00, 0x00, 0x00, 0x00, 0x00, 0x00, 0x00, 0x00, 0x00, 0x00, 0x00, 0x00,
  0x00, 0x00, 0x00, 0x00, 0x00, 0x00, 0x00, 0x00, 0x00, 0x00, 0x00, 0x00,
  0x00, 0x00, 0x00, 0x00, 0x00, 0x00, 0x00, 0x00, 0x00, 0x00, 0x00, 0x00,
  0x00, 0x00, 0x00, 0x00, 0x00, 0x00, 0x00, 0x00, 0x00, 0x00, 0x00, 0x00,
  0x00, 0x00, 0x00, 0x00, 0x06, 0x00, 0x00, 0x00, 0x26, 0xa6, 0x19, 0x3c,
  0x08, 0x54, 0xc4, 0x3b, 0xed, 0x68, 0x07, 0x3c, 0x46, 0xd0, 0xf4, 0x3b,
  0x07, 0xdf, 0xd3, 0x3b, 0x3a, 0xc9, 0x11, 0x3c, 0x12, 0x00, 0x00, 0x00,
  0x74, 0x66, 0x6c, 0x2e, 0x70, 0x73, 0x65, 0x75, 0x64, 0x6f, 0x5f, 0x71,
  0x63, 0x6f, 0x6e, 0x73, 0x74, 0x31, 0x00, 0x00, 0x02, 0x00, 0x00, 0x00,
  0x06, 0x00, 0x00, 0x00, 0x20, 0x00, 0x00, 0x00, 0xb2, 0xfe, 0xff, 0xff,
  0x00, 0x00, 0x00, 0x01, 0x14, 0x00, 0x00, 0x00, 0x6c, 0x00, 0x00, 0x00,
  0x05, 0x00, 0x00, 0x00, 0x00, 0x00, 0x00, 0x02, 0x78, 0x00, 0x00, 0x00,
  0x9c, 0xfe, 0xff, 0xff, 0x08, 0x00, 0x00, 0x00, 0x38, 0x00, 0x00, 0x00,
  0x06, 0x00, 0x00, 0x00, 0x00, 0x00, 0x00, 0x00, 0x00, 0x00, 0x00, 0x00,
  0x00, 0x00, 0x00, 0x00, 0x00, 0x00, 0x00, 0x00, 0x00, 0x00, 0x00, 0x00,
  0x00, 0x00, 0x00, 0x00, 0x00, 0x00, 0x00, 0x00, 0x00, 0x00, 0x00, 0x00,
  0x00, 0x00, 0x00, 0x00, 0x00, 0x00, 0x00, 0x00, 0x00, 0x00, 0x00, 0x00,
  0x00, 0x00, 0x00, 0x00, 0x06, 0x00, 0x00, 0x00, 0xd7, 0xd0, 0x4a, 0x39,
  0x78, 0x93, 0x01, 0x39, 0x7e, 0xbd, 0x32, 0x39, 0x83, 0x93, 0x21, 0x39,
  0x98, 0xd5, 0x0b, 0x39, 0xcb, 0x6f, 0x40, 0x39, 0x11, 0x00, 0x00, 0x00,
  0x74, 0x66, 0x6c, 0x2e, 0x70, 0x73, 0x65, 0x75, 0x64, 0x6f, 0x5f, 0x71,
  0x63, 0x6f, 0x6e, 0x73, 0x74, 0x00, 0x00, 0x00, 0x01, 0x00, 0x00, 0x00,
  0x06, 0x00, 0x00, 0x00, 0x4a, 0xff, 0xff, 0xff, 0x00, 0x00, 0x00, 0x01,
  0x14, 0x00, 0x00, 0x00, 0x14, 0x00, 0x00, 0x00, 0x04, 0x00, 0x00, 0x00,
  0x00, 0x00, 0x00, 0x02, 0x1c, 0x00, 0x00, 0x00, 0x8c, 0xff, 0xff, 0xff,
  0x0f, 0x00, 0x00, 0x00, 0x61, 0x72, 0x69, 0x74, 0x68, 0x2e, 0x63, 0x6f,
  0x6e, 0x73, 0x74, 0x61, 0x6e, 0x74, 0x32, 0x00, 0x00, 0x00, 0x00, 0x00,
  0x82, 0xff, 0xff, 0xff, 0x00, 0x00, 0x00, 0x01, 0x14, 0x00, 0x00, 0x00,
  0x14, 0x00, 0x00, 0x00, 0x03, 0x00, 0x00, 0x00, 0x00, 0x00, 0x00, 0x02,
  0x1c, 0x00, 0x00, 0x00, 0xc4, 0xff, 0xff, 0xff, 0x0f, 0x00, 0x00, 0x00,
  0x61, 0x72, 0x69, 0x74, 0x68, 0x2e, 0x63, 0x6f, 0x6e, 0x73, 0x74, 0x61,
  0x6e, 0x74, 0x31, 0x00, 0x01, 0x00, 0x00, 0x00, 0x03, 0x00, 0x00, 0x00,
  0xbe, 0xff, 0xff, 0xff, 0x00, 0x00, 0x00, 0x01, 0x18, 0x00, 0x00, 0x00,
  0x18, 0x00, 0x00, 0x00, 0x02, 0x00, 0x00, 0x00, 0x00, 0x00, 0x00, 0x02,
  0x20, 0x00, 0x00, 0x00, 0x04, 0x00, 0x04, 0x00, 0x04, 0x00, 0x00, 0x00,
  0x0e, 0x00, 0x00, 0x00, 0x61, 0x72, 0x69, 0x74, 0x68, 0x2e, 0x63, 0x6f,
  0x6e, 0x73, 0x74, 0x61, 0x6e, 0x74, 0x00, 0x00, 0x01, 0x00, 0x00, 0x00,
  0x04, 0x00, 0x00, 0x00, 0x00, 0x00, 0x16, 0x00, 0x1c, 0x00, 0x18, 0x00,
  0x17, 0x00, 0x10, 0x00, 0x0c, 0x00, 0x08, 0x00, 0x00, 0x00, 0x00, 0x00,
  0x00, 0x00, 0x07, 0x00, 0x16, 0x00, 0x00, 0x00, 0x00, 0x00, 0x00, 0x01,
  0x20, 0x00, 0x00, 0x00, 0x3c, 0x00, 0x00, 0x00, 0x01, 0x00, 0x00, 0x00,
  0x00, 0x00, 0x00, 0x09, 0x3c, 0x00, 0x00, 0x00, 0x0c, 0x00, 0x0c, 0x00,
  0x00, 0x00, 0x00, 0x00, 0x08, 0x00, 0x04, 0x00, 0x0c, 0x00, 0x00, 0x00,
  0x08, 0x00, 0x00, 0x00, 0x10, 0x00, 0x00, 0x00, 0x01, 0x00, 0x00, 0x00,
  0x0b, 0x00, 0x00, 0x00, 0x00, 0x00, 0x00, 0x00, 0x01, 0x00, 0x00, 0x00,
  0x1a, 0x52, 0x17, 0x3e, 0x06, 0x00, 0x00, 0x00, 0x69, 0x6e, 0x70, 0x75,
  0x74, 0x73, 0x00, 0x00, 0x03, 0x00, 0x00, 0x00, 0x01, 0x00, 0x00, 0x00,
  0x80, 0x00, 0x00, 0x00, 0x0a, 0x00, 0x00, 0x00, 0x07, 0x00, 0x00, 0x00,
  0x94, 0x00, 0x00, 0x00, 0x74, 0x00, 0x00, 0x00, 0x54, 0x00, 0x00, 0x00,
  0x40, 0x00, 0x00, 0x00, 0x2c, 0x00, 0x00, 0x00, 0x18, 0x00, 0x00, 0x00,
  0x04, 0x00, 0x00, 0x00, 0xb0, 0xff, 0xff, 0xff, 0x19, 0x00, 0x00, 0x00,
  0x02, 0x00, 0x00, 0x00, 0x00, 0x00, 0x00, 0x19, 0xc0, 0xff, 0xff, 0xff,
  0x09, 0x00, 0x00, 0x00, 0x04, 0x00, 0x00, 0x00, 0x00, 0x00, 0x00, 0x09,
  0xd0, 0xff, 0xff, 0xff, 0x28, 0x00, 0x00, 0x00, 0x02, 0x00, 0x00, 0x00,
  0x00, 0x00, 0x00, 0x28, 0xe0, 0xff, 0xff, 0xff, 0x01, 0x00, 0x00, 0x00,
  0x02, 0x00, 0x00, 0x00, 0x00, 0x00, 0x00, 0x01, 0xf0, 0xff, 0xff, 0xff,
  0x04, 0x00, 0x00, 0x00, 0x03, 0x00, 0x00, 0x00, 0x00, 0x00, 0x00, 0x04,
  0x0c, 0x00, 0x10, 0x00, 0x0f, 0x00, 0x00, 0x00, 0x08, 0x00, 0x04, 0x00,
  0x0c, 0x00, 0x00, 0x00, 0x03, 0x00, 0x00, 0x00, 0x03, 0x00, 0x00, 0x00,
  0x00, 0x00, 0x00, 0x03, 0x0c, 0x00, 0x0c, 0x00, 0x0b, 0x00, 0x00, 0x00,
  0x00, 0x00, 0x04, 0x00, 0x0c, 0x00, 0x00, 0x00, 0x16, 0x00, 0x00, 0x00,
  0x00, 0x00, 0x00, 0x16,
};
const unsigned int g_tinyml_har_model_len = 10432;

#endif  // TINYML_HAR_MODEL_DATA_H_
