#ifndef TINYML_HAR_MODEL_DATA_H_
#define TINYML_HAR_MODEL_DATA_H_

// M3 candidate deployment model for live evidence collection.
// Model: retrained mixed 6-channel DS-CNN with V2.1 long adaptation data.
// This is not claimed as a fully scientifically validated final model.
// Check the M3 report for remaining held-out validation failure modes.

#include <cstdint>

#if defined(ARDUINO_ARCH_AVR)
#include <avr/pgmspace.h>
#define TINYML_PROGMEM PROGMEM
#else
#define TINYML_PROGMEM
#endif

constexpr int kWindowSize = 128;
constexpr int kWindowStride = 64;
constexpr int kStride = kWindowStride;
constexpr int kChannelCount = 6;
constexpr int kClassCount = 6;
constexpr int kTensorArenaSize = 61440;
constexpr float kGyroDegToRad = 0.01745329252f;
constexpr float kInputScale = 0.136206716f;
constexpr int kInputZeroPoint = 8;
constexpr float kOutputScale = 0.00390625f;
constexpr int kOutputZeroPoint = -128;
const char* const kNormalizationSource = "UCI-HAR train + Arduino V2 train + capped V2.1 long adaptation";

constexpr float kFeatureMean[kChannelCount] = {0.604869485f, -0.0397222489f, 0.0914536119f, 0.00762588019f, -0.00303066266f, 0.000598863058f};
constexpr float kFeatureStd[kChannelCount] = {0.650367796f, 0.426945865f, 0.357652277f, 0.466773778f, 0.384054512f, 0.285695374f};
const char* const kClassNames[kClassCount] = {"WALKING", "WALKING_UPSTAIRS", "WALKING_DOWNSTAIRS", "SITTING", "STANDING", "LAYING"};

alignas(8) const unsigned char g_tinyml_har_model[] TINYML_PROGMEM = {
  0x20, 0x00, 0x00, 0x00, 0x54, 0x46, 0x4c, 0x33, 0x00, 0x00, 0x00, 0x00,
  0x14, 0x00, 0x20, 0x00, 0x1c, 0x00, 0x18, 0x00, 0x14, 0x00, 0x10, 0x00,
  0x0c, 0x00, 0x00, 0x00, 0x08, 0x00, 0x04, 0x00, 0x14, 0x00, 0x00, 0x00,
  0x1c, 0x00, 0x00, 0x00, 0x1c, 0x00, 0x00, 0x00, 0x9c, 0x00, 0x00, 0x00,
  0xe8, 0x0a, 0x00, 0x00, 0xf8, 0x0a, 0x00, 0x00, 0x54, 0x27, 0x00, 0x00,
  0x03, 0x00, 0x00, 0x00, 0x00, 0x00, 0x00, 0x00, 0x03, 0x00, 0x00, 0x00,
  0x5c, 0x00, 0x00, 0x00, 0x2c, 0x00, 0x00, 0x00, 0x04, 0x00, 0x00, 0x00,
  0xb8, 0xff, 0xff, 0xff, 0x1e, 0x00, 0x00, 0x00, 0x04, 0x00, 0x00, 0x00,
  0x13, 0x00, 0x00, 0x00, 0x43, 0x4f, 0x4e, 0x56, 0x45, 0x52, 0x53, 0x49,
  0x4f, 0x4e, 0x5f, 0x4d, 0x45, 0x54, 0x41, 0x44, 0x41, 0x54, 0x41, 0x00,
  0xdc, 0xff, 0xff, 0xff, 0x1d, 0x00, 0x00, 0x00, 0x04, 0x00, 0x00, 0x00,
  0x13, 0x00, 0x00, 0x00, 0x6d, 0x69, 0x6e, 0x5f, 0x72, 0x75, 0x6e, 0x74,
  0x69, 0x6d, 0x65, 0x5f, 0x76, 0x65, 0x72, 0x73, 0x69, 0x6f, 0x6e, 0x00,
  0x08, 0x00, 0x0c, 0x00, 0x08, 0x00, 0x04, 0x00, 0x08, 0x00, 0x00, 0x00,
  0x1c, 0x00, 0x00, 0x00, 0x04, 0x00, 0x00, 0x00, 0x13, 0x00, 0x00, 0x00,
  0x6d, 0x69, 0x6e, 0x5f, 0x72, 0x75, 0x6e, 0x74, 0x69, 0x6d, 0x65, 0x5f,
  0x76, 0x65, 0x72, 0x73, 0x69, 0x6f, 0x6e, 0x00, 0x1f, 0x00, 0x00, 0x00,
  0x48, 0x0a, 0x00, 0x00, 0x40, 0x0a, 0x00, 0x00, 0x20, 0x0a, 0x00, 0x00,
  0x04, 0x0a, 0x00, 0x00, 0xf0, 0x09, 0x00, 0x00, 0xc8, 0x09, 0x00, 0x00,
  0xf8, 0x08, 0x00, 0x00, 0x68, 0x08, 0x00, 0x00, 0x58, 0x05, 0x00, 0x00,
  0xe8, 0x04, 0x00, 0x00, 0x60, 0x04, 0x00, 0x00, 0xf0, 0x03, 0x00, 0x00,
  0xc0, 0x02, 0x00, 0x00, 0x80, 0x02, 0x00, 0x00, 0x34, 0x02, 0x00, 0x00,
  0xf4, 0x01, 0x00, 0x00, 0x0c, 0x01, 0x00, 0x00, 0x04, 0x01, 0x00, 0x00,
  0xfc, 0x00, 0x00, 0x00, 0xf4, 0x00, 0x00, 0x00, 0xec, 0x00, 0x00, 0x00,
  0xe4, 0x00, 0x00, 0x00, 0xdc, 0x00, 0x00, 0x00, 0xd4, 0x00, 0x00, 0x00,
  0xcc, 0x00, 0x00, 0x00, 0xc4, 0x00, 0x00, 0x00, 0xbc, 0x00, 0x00, 0x00,
  0xb4, 0x00, 0x00, 0x00, 0x94, 0x00, 0x00, 0x00, 0x74, 0x00, 0x00, 0x00,
  0x04, 0x00, 0x00, 0x00, 0x96, 0xf5, 0xff, 0xff, 0x04, 0x00, 0x00, 0x00,
  0x60, 0x00, 0x00, 0x00, 0x0c, 0x00, 0x00, 0x00, 0x08, 0x00, 0x0e, 0x00,
  0x08, 0x00, 0x04, 0x00, 0x08, 0x00, 0x00, 0x00, 0x10, 0x00, 0x00, 0x00,
  0x28, 0x00, 0x00, 0x00, 0x00, 0x00, 0x06, 0x00, 0x08, 0x00, 0x04, 0x00,
  0x06, 0x00, 0x00, 0x00, 0x04, 0x00, 0x00, 0x00, 0x01, 0x00, 0x00, 0x00,
  0xeb, 0x03, 0x00, 0x00, 0x0c, 0x00, 0x18, 0x00, 0x14, 0x00, 0x10, 0x00,
  0x0c, 0x00, 0x04, 0x00, 0x0c, 0x00, 0x00, 0x00, 0x85, 0x19, 0x69, 0xb1,
  0x00, 0xb9, 0x20, 0xbf, 0x03, 0x00, 0x00, 0x00, 0x02, 0x00, 0x00, 0x00,
  0x04, 0x00, 0x00, 0x00, 0x06, 0x00, 0x00, 0x00, 0x32, 0x2e, 0x31, 0x38,
  0x2e, 0x30, 0x00, 0x00, 0x02, 0xf6, 0xff, 0xff, 0x04, 0x00, 0x00, 0x00,
  0x10, 0x00, 0x00, 0x00, 0x00, 0x00, 0x00, 0x00, 0x00, 0x00, 0x00, 0x00,
  0x00, 0x00, 0x00, 0x00, 0x00, 0x00, 0x00, 0x00, 0x1e, 0xf6, 0xff, 0xff,
  0x04, 0x00, 0x00, 0x00, 0x10, 0x00, 0x00, 0x00, 0x31, 0x2e, 0x31, 0x34,
  0x2e, 0x30, 0x00, 0x00, 0x00, 0x00, 0x00, 0x00, 0x00, 0x00, 0x00, 0x00,
  0x00, 0xdb, 0xff, 0xff, 0x04, 0xdb, 0xff, 0xff, 0x08, 0xdb, 0xff, 0xff,
  0x0c, 0xdb, 0xff, 0xff, 0x10, 0xdb, 0xff, 0xff, 0x14, 0xdb, 0xff, 0xff,
  0x18, 0xdb, 0xff, 0xff, 0x1c, 0xdb, 0xff, 0xff, 0x20, 0xdb, 0xff, 0xff,
  0x24, 0xdb, 0xff, 0xff, 0x28, 0xdb, 0xff, 0xff, 0x66, 0xf6, 0xff, 0xff,
  0x04, 0x00, 0x00, 0x00, 0xd8, 0x00, 0x00, 0x00, 0x24, 0x79, 0x38, 0x29,
  0x81, 0x32, 0x2b, 0xe8, 0x2b, 0x3c, 0x1e, 0x1b, 0x27, 0x4f, 0x2b, 0xc7,
  0x4d, 0xca, 0x40, 0xf8, 0xc2, 0xca, 0x59, 0x35, 0xdd, 0xa7, 0x6a, 0x07,
  0xb6, 0x01, 0x30, 0xc2, 0xdd, 0x7f, 0x37, 0xb5, 0xf3, 0xfc, 0x0c, 0x06,
  0x06, 0x04, 0x23, 0x3d, 0xf5, 0xea, 0xc5, 0x0c, 0x1a, 0x37, 0xdd, 0xe0,
  0x7f, 0xec, 0x78, 0x5b, 0x17, 0x1c, 0x35, 0x34, 0x91, 0x6c, 0x98, 0x3f,
  0x6e, 0x88, 0x7f, 0x73, 0x20, 0xba, 0x21, 0xd2, 0xa2, 0x8d, 0x26, 0xa4,
  0x94, 0xe1, 0x70, 0x19, 0x7f, 0x04, 0x6a, 0x15, 0xd7, 0x07, 0xfc, 0xd1,
  0xe6, 0x06, 0x4d, 0x93, 0xa4, 0x19, 0xa0, 0x32, 0x5c, 0x08, 0x7a, 0x7f,
  0xe2, 0x0e, 0xe6, 0x15, 0x0e, 0x04, 0x11, 0x68, 0x55, 0x09, 0xef, 0xdf,
  0x55, 0xf5, 0xff, 0x1b, 0x40, 0x01, 0x7f, 0x60, 0x08, 0xc7, 0x0b, 0xfd,
  0x54, 0xfd, 0xd2, 0x8e, 0x7f, 0x10, 0x32, 0xee, 0xd6, 0x1b, 0xd4, 0x07,
  0xac, 0xcd, 0x7f, 0x3f, 0x76, 0xe0, 0x19, 0xae, 0x0c, 0x8d, 0x92, 0x3a,
  0x08, 0x18, 0xc2, 0xf8, 0xac, 0x4a, 0x3c, 0x81, 0xb0, 0x6e, 0xf1, 0xea,
  0xcd, 0x86, 0x26, 0x58, 0xf9, 0xe3, 0xe1, 0x66, 0x7f, 0x99, 0x51, 0x8f,
  0xc0, 0xc0, 0xdf, 0x87, 0xc9, 0xc6, 0xf1, 0x59, 0x8d, 0x5f, 0xdf, 0xf6,
  0x81, 0x34, 0x81, 0x5b, 0xa7, 0x98, 0x45, 0x0e, 0xb3, 0x52, 0x63, 0x07,
  0x04, 0xb5, 0xf0, 0xd0, 0xad, 0xa9, 0x85, 0x7e, 0xcf, 0xeb, 0xeb, 0xc0,
  0xc1, 0x7f, 0x87, 0xf9, 0x91, 0x8c, 0x33, 0xc0, 0x4a, 0xf7, 0xff, 0xff,
  0x04, 0x00, 0x00, 0x00, 0x30, 0x00, 0x00, 0x00, 0xda, 0xff, 0xff, 0xff,
  0xdd, 0x00, 0x00, 0x00, 0xbd, 0x00, 0x00, 0x00, 0x97, 0x00, 0x00, 0x00,
  0xdd, 0xff, 0xff, 0xff, 0xe3, 0xfe, 0xff, 0xff, 0x58, 0x00, 0x00, 0x00,
  0x93, 0xff, 0xff, 0xff, 0x99, 0xfe, 0xff, 0xff, 0xe8, 0xfe, 0xff, 0xff,
  0x84, 0xfe, 0xff, 0xff, 0x70, 0xff, 0xff, 0xff, 0x86, 0xf7, 0xff, 0xff,
  0x04, 0x00, 0x00, 0x00, 0x3c, 0x00, 0x00, 0x00, 0x5d, 0x07, 0x4e, 0x1d,
  0x47, 0xbe, 0xfa, 0x1b, 0x94, 0xde, 0xbc, 0xf2, 0x03, 0x32, 0x04, 0x81,
  0x3d, 0x6c, 0x81, 0x20, 0x61, 0x7f, 0x16, 0x69, 0x0f, 0x67, 0xee, 0xb6,
  0x23, 0x12, 0xa9, 0x14, 0x7f, 0x48, 0xa4, 0x81, 0x81, 0x81, 0x81, 0xe0,
  0xc6, 0x7f, 0xec, 0x7f, 0x37, 0x72, 0x81, 0xb6, 0x9d, 0x91, 0x3b, 0x48,
  0x7f, 0x22, 0x40, 0x7c, 0x11, 0x74, 0x1a, 0xc4, 0xce, 0xf7, 0xff, 0xff,
  0x04, 0x00, 0x00, 0x00, 0x30, 0x00, 0x00, 0x00, 0x00, 0x00, 0x00, 0x00,
  0x00, 0x00, 0x00, 0x00, 0x00, 0x00, 0x00, 0x00, 0x00, 0x00, 0x00, 0x00,
  0x00, 0x00, 0x00, 0x00, 0x00, 0x00, 0x00, 0x00, 0x00, 0x00, 0x00, 0x00,
  0x00, 0x00, 0x00, 0x00, 0x00, 0x00, 0x00, 0x00, 0x00, 0x00, 0x00, 0x00,
  0x00, 0x00, 0x00, 0x00, 0x00, 0x00, 0x00, 0x00, 0x0a, 0xf8, 0xff, 0xff,
  0x04, 0x00, 0x00, 0x00, 0x20, 0x01, 0x00, 0x00, 0x25, 0xbf, 0x22, 0xe1,
  0xad, 0xfe, 0x10, 0x7f, 0xbe, 0xa9, 0xfe, 0x0e, 0xf7, 0x0e, 0x7f, 0x8a,
  0x34, 0xd6, 0x45, 0xdb, 0xa4, 0xe6, 0x5d, 0x0b, 0xe6, 0x52, 0x8d, 0xf2,
  0x7f, 0x2c, 0x3a, 0xce, 0x6a, 0xbf, 0x0e, 0xad, 0x99, 0x26, 0xb1, 0x3c,
  0xd5, 0x5f, 0x7f, 0x5c, 0x83, 0x03, 0xd4, 0x5e, 0xcf, 0x7f, 0x98, 0xb6,
  0x69, 0x20, 0xf4, 0xa1, 0x20, 0xdb, 0x76, 0x85, 0x7f, 0x8e, 0x24, 0xf4,
  0xb2, 0x26, 0x14, 0x53, 0x07, 0x4d, 0xbd, 0x90, 0x9d, 0x6e, 0x81, 0x2b,
  0x14, 0x40, 0x74, 0xfa, 0xcc, 0xdf, 0x2d, 0x0b, 0x2a, 0x0d, 0xd9, 0x7f,
  0xa2, 0x65, 0xc7, 0x4b, 0x5b, 0x39, 0x53, 0xc1, 0x8f, 0x91, 0x18, 0x0c,
  0x29, 0xdc, 0x1a, 0x4a, 0x28, 0x81, 0x17, 0xe8, 0xdf, 0xf1, 0xc5, 0x2a,
  0xf0, 0x81, 0xfe, 0xc8, 0xe3, 0x19, 0x3b, 0x42, 0xd0, 0x7f, 0x24, 0xd2,
  0xda, 0x1b, 0xe0, 0x36, 0xd6, 0xf0, 0x47, 0xcc, 0x3e, 0x1d, 0x45, 0x92,
  0xfd, 0x7f, 0x39, 0x49, 0x46, 0x4b, 0x2e, 0xec, 0xe2, 0x49, 0x72, 0xc7,
  0xde, 0x42, 0xb0, 0x40, 0x86, 0xf0, 0x81, 0x76, 0x7f, 0x22, 0x06, 0x49,
  0xca, 0x54, 0x33, 0xb6, 0x20, 0x52, 0x98, 0xf0, 0x50, 0xbe, 0x1c, 0xfe,
  0xb8, 0x5e, 0x8b, 0x81, 0xfd, 0xc1, 0x9c, 0x53, 0xc5, 0x9f, 0xda, 0xa9,
  0x7f, 0x6f, 0x5e, 0x0b, 0x4f, 0x2c, 0xf5, 0xf1, 0xf1, 0x02, 0x8a, 0xc3,
  0xc9, 0x09, 0xe2, 0x7f, 0xc6, 0xe7, 0x95, 0x35, 0x30, 0x7f, 0xa9, 0xd4,
  0xd5, 0xcd, 0xdf, 0x4d, 0xdf, 0xe6, 0xc6, 0xf9, 0xcc, 0xc8, 0xd4, 0x88,
  0xdd, 0x5b, 0x1d, 0xd2, 0xe5, 0x81, 0x49, 0x72, 0xf7, 0x91, 0x13, 0xe8,
  0x7f, 0xf1, 0xfc, 0x3e, 0xb5, 0x5e, 0xa2, 0xfe, 0x07, 0x37, 0x62, 0xe5,
  0x18, 0x07, 0xff, 0x7f, 0xea, 0x3e, 0xf7, 0x1c, 0x7f, 0xeb, 0xfc, 0xbe,
  0x2e, 0x42, 0xce, 0x45, 0x91, 0xe2, 0xfd, 0xaf, 0xc9, 0x03, 0x55, 0x02,
  0xca, 0x0c, 0x0e, 0x00, 0x7f, 0x50, 0x0c, 0x79, 0x9a, 0x20, 0xc8, 0xa7,
  0xf0, 0x1c, 0x11, 0x02, 0x8f, 0x4f, 0x9b, 0x7f, 0x36, 0xf9, 0xff, 0xff,
  0x04, 0x00, 0x00, 0x00, 0x60, 0x00, 0x00, 0x00, 0xc9, 0x01, 0x00, 0x00,
  0xd4, 0x02, 0x00, 0x00, 0xaf, 0xfe, 0xff, 0xff, 0x8e, 0x01, 0x00, 0x00,
  0x71, 0xff, 0xff, 0xff, 0x6e, 0xfd, 0xff, 0xff, 0xb7, 0x01, 0x00, 0x00,
  0x0e, 0xff, 0xff, 0xff, 0x85, 0x00, 0x00, 0x00, 0xf5, 0x02, 0x00, 0x00,
  0x7b, 0x00, 0x00, 0x00, 0x4c, 0xfd, 0xff, 0xff, 0x2f, 0xfe, 0xff, 0xff,
  0x67, 0xff, 0xff, 0xff, 0xa4, 0x01, 0x00, 0x00, 0x07, 0xfb, 0xff, 0xff,
  0x7f, 0xfd, 0xff, 0xff, 0x26, 0x00, 0x00, 0x00, 0x51, 0x03, 0x00, 0x00,
  0x4c, 0xfa, 0xff, 0xff, 0xc3, 0xfc, 0xff, 0xff, 0x48, 0xfe, 0xff, 0xff,
  0x4b, 0xff, 0xff, 0xff, 0xd9, 0xfd, 0xff, 0xff, 0xa2, 0xf9, 0xff, 0xff,
  0x04, 0x00, 0x00, 0x00, 0x78, 0x00, 0x00, 0x00, 0x29, 0x45, 0x00, 0x4f,
  0x60, 0x7f, 0x7f, 0x73, 0x8a, 0x43, 0x20, 0x6e, 0xec, 0xb9, 0x1b, 0x81,
  0xb9, 0xe7, 0x1c, 0xf4, 0xf5, 0xd1, 0x5c, 0x6f, 0x82, 0x20, 0x6e, 0xe0,
  0x73, 0x38, 0x5e, 0x15, 0x81, 0xc1, 0x61, 0x79, 0xc3, 0xce, 0x7f, 0x1a,
  0x22, 0x81, 0x00, 0x55, 0xf3, 0x7f, 0xd9, 0xb9, 0x28, 0x0d, 0xc4, 0xe8,
  0x7f, 0x23, 0x59, 0x34, 0xfd, 0x7f, 0x7f, 0x51, 0x7f, 0x53, 0x3c, 0xa3,
  0xe1, 0x41, 0xc3, 0x6c, 0xb8, 0x07, 0xf4, 0x37, 0x81, 0x7f, 0x81, 0x7f,
  0x58, 0x5b, 0x02, 0x7f, 0x1e, 0x07, 0xf5, 0x7f, 0xa1, 0x54, 0x0c, 0x08,
  0x8b, 0xf0, 0xcc, 0x72, 0xeb, 0xd1, 0x35, 0x7f, 0xdc, 0x54, 0xb0, 0x58,
  0x2f, 0x37, 0x6a, 0xc5, 0x96, 0xd9, 0x62, 0x5c, 0x67, 0x7f, 0x10, 0x84,
  0x81, 0x85, 0x81, 0x7f, 0x81, 0x66, 0x7f, 0x73, 0x26, 0xfa, 0xff, 0xff,
  0x04, 0x00, 0x00, 0x00, 0x60, 0x00, 0x00, 0x00, 0x00, 0x00, 0x00, 0x00,
  0x00, 0x00, 0x00, 0x00, 0x00, 0x00, 0x00, 0x00, 0x00, 0x00, 0x00, 0x00,
  0x00, 0x00, 0x00, 0x00, 0x00, 0x00, 0x00, 0x00, 0x00, 0x00, 0x00, 0x00,
  0x00, 0x00, 0x00, 0x00, 0x00, 0x00, 0x00, 0x00, 0x00, 0x00, 0x00, 0x00,
  0x00, 0x00, 0x00, 0x00, 0x00, 0x00, 0x00, 0x00, 0x00, 0x00, 0x00, 0x00,
  0x00, 0x00, 0x00, 0x00, 0x00, 0x00, 0x00, 0x00, 0x00, 0x00, 0x00, 0x00,
  0x00, 0x00, 0x00, 0x00, 0x00, 0x00, 0x00, 0x00, 0x00, 0x00, 0x00, 0x00,
  0x00, 0x00, 0x00, 0x00, 0x00, 0x00, 0x00, 0x00, 0x00, 0x00, 0x00, 0x00,
  0x00, 0x00, 0x00, 0x00, 0x00, 0x00, 0x00, 0x00, 0x92, 0xfa, 0xff, 0xff,
  0x04, 0x00, 0x00, 0x00, 0x00, 0x03, 0x00, 0x00, 0x7f, 0xf4, 0x2b, 0x23,
  0xd1, 0xd6, 0x32, 0x17, 0x42, 0x59, 0xdb, 0x14, 0x4f, 0xf1, 0xea, 0x6a,
  0xea, 0x13, 0x3c, 0xce, 0xc0, 0xf1, 0x13, 0xac, 0xb1, 0xd5, 0x35, 0xee,
  0xf4, 0x1c, 0xd0, 0x21, 0x60, 0xe2, 0x20, 0x44, 0xf6, 0x38, 0x04, 0x93,
  0x4a, 0x23, 0xf1, 0xbf, 0x7f, 0x05, 0x09, 0x56, 0x3f, 0x25, 0xe0, 0x96,
  0x81, 0x4d, 0x0e, 0x33, 0xc2, 0x41, 0x91, 0xc5, 0x8d, 0xdf, 0x39, 0xe3,
  0x0c, 0x23, 0x0d, 0xd0, 0xbb, 0x1f, 0xba, 0x1a, 0xcf, 0xb9, 0x08, 0xdf,
  0x61, 0xe5, 0x4d, 0xe7, 0x0f, 0xf2, 0x64, 0xec, 0xf8, 0x94, 0xf6, 0x5a,
  0x7f, 0xad, 0x57, 0x10, 0x0d, 0x48, 0x6d, 0x03, 0x2a, 0x7f, 0x41, 0x05,
  0xd4, 0xf1, 0xf6, 0x34, 0xf0, 0x03, 0x5a, 0xd2, 0xe8, 0x5d, 0xb6, 0x09,
  0xdd, 0x26, 0xef, 0x11, 0x79, 0x3e, 0x09, 0xe9, 0x98, 0x5c, 0x10, 0xfb,
  0x2f, 0xff, 0xaa, 0x15, 0x39, 0x22, 0x6c, 0x2d, 0xd8, 0x1b, 0x09, 0xe4,
  0x4a, 0xea, 0xe6, 0x7f, 0xe3, 0x42, 0x95, 0x34, 0xd7, 0xb1, 0xc7, 0xed,
  0x82, 0xe5, 0xa2, 0x10, 0x4b, 0x29, 0xe8, 0xcf, 0xc6, 0x5b, 0xac, 0xbd,
  0xa2, 0x09, 0x02, 0xe1, 0xe7, 0xc3, 0xfb, 0x81, 0xbc, 0x14, 0xb2, 0x72,
  0xc5, 0x96, 0xb8, 0xda, 0x18, 0xaa, 0xa6, 0x1e, 0x5f, 0xc0, 0x65, 0x13,
  0xa5, 0xf5, 0x37, 0x4c, 0x1f, 0x31, 0xb2, 0x7f, 0x5c, 0xae, 0x0e, 0xdf,
  0x0d, 0xfc, 0x7f, 0xbf, 0x39, 0xc1, 0x58, 0xd3, 0x3b, 0x05, 0xd0, 0xc9,
  0xc4, 0xb0, 0xed, 0x32, 0x58, 0x1f, 0x41, 0xb2, 0xb8, 0x0f, 0x08, 0xcc,
  0x14, 0x30, 0x7f, 0xd9, 0x4c, 0x95, 0xea, 0xe2, 0xae, 0x10, 0x1b, 0x16,
  0xf4, 0xa6, 0x33, 0x00, 0xe5, 0x14, 0x49, 0xe3, 0x48, 0xe1, 0xf4, 0x0a,
  0xe3, 0xc8, 0xd6, 0x23, 0x58, 0x36, 0x7b, 0xb0, 0xf8, 0xb0, 0xc7, 0x18,
  0x8a, 0x28, 0xaa, 0x38, 0x7f, 0x73, 0xcd, 0x86, 0x25, 0x7f, 0x26, 0x17,
  0xad, 0xf9, 0xeb, 0xcb, 0xec, 0xcc, 0x52, 0xcf, 0x12, 0x12, 0x22, 0xb4,
  0x10, 0x34, 0xf8, 0x58, 0xc7, 0xe1, 0x27, 0x78, 0xf8, 0x81, 0xbb, 0xb3,
  0xfa, 0x10, 0x07, 0xe0, 0x58, 0xf1, 0x16, 0xb6, 0x10, 0x20, 0x4b, 0xcd,
  0x19, 0xf6, 0x35, 0x05, 0x0f, 0xc6, 0xb4, 0x01, 0x63, 0x32, 0x81, 0xf9,
  0xe7, 0xf2, 0xfe, 0x39, 0x3b, 0x08, 0x7d, 0xa5, 0xa3, 0xd6, 0x18, 0x9d,
  0x09, 0x56, 0xd3, 0x6b, 0x4e, 0xd0, 0x63, 0x21, 0xf8, 0x30, 0xad, 0x1d,
  0x2b, 0x24, 0x50, 0xd2, 0xf6, 0x17, 0xdb, 0x90, 0xbd, 0x59, 0x81, 0xb2,
  0x10, 0xc3, 0x13, 0xfa, 0xd8, 0xc3, 0x02, 0xcf, 0xd6, 0xc9, 0xa1, 0x49,
  0x7f, 0x1d, 0x52, 0x94, 0xea, 0xd0, 0xaa, 0xec, 0x20, 0x8a, 0x3b, 0x45,
  0x50, 0xc3, 0xd9, 0x17, 0x18, 0xa6, 0x21, 0x3e, 0x3a, 0xb3, 0xf4, 0xb5,
  0x99, 0xc1, 0x81, 0xc0, 0xb5, 0x1c, 0xee, 0x17, 0xd3, 0xf9, 0x18, 0x73,
  0x9e, 0xe8, 0x1b, 0x00, 0xc1, 0x94, 0xbb, 0x21, 0xa8, 0x37, 0x2d, 0x96,
  0xdf, 0x7f, 0xbe, 0xfe, 0xb0, 0xdf, 0xff, 0x76, 0x9d, 0xf4, 0xbe, 0xfe,
  0xb4, 0x10, 0xe6, 0xbf, 0x16, 0x5e, 0x33, 0x22, 0xf9, 0x23, 0xb2, 0xb9,
  0xd6, 0xa6, 0xc8, 0xa2, 0x07, 0xc5, 0xc4, 0xd0, 0x05, 0x5c, 0xde, 0x02,
  0xf3, 0xdc, 0xbf, 0xd5, 0xe7, 0xc4, 0x81, 0x27, 0x37, 0x56, 0xa0, 0x23,
  0x43, 0xc3, 0xd4, 0x03, 0x81, 0x16, 0xfb, 0xc2, 0x0c, 0x24, 0xf0, 0xfc,
  0xaa, 0xa4, 0x74, 0x0b, 0xc2, 0xc1, 0x1f, 0x28, 0xe9, 0x66, 0x1e, 0x1e,
  0x19, 0x8a, 0xc0, 0x21, 0xbf, 0x1a, 0x4f, 0xd4, 0x05, 0xec, 0x81, 0xc1,
  0x2c, 0x66, 0x56, 0x1c, 0x4a, 0xf7, 0x0b, 0xd8, 0x14, 0x05, 0x1b, 0x3f,
  0x53, 0x16, 0x1b, 0xe0, 0x4c, 0x22, 0x7f, 0x06, 0x5c, 0xc4, 0xe5, 0xca,
  0x4f, 0xd2, 0x8d, 0x37, 0x0b, 0xde, 0x20, 0x28, 0x02, 0xac, 0x04, 0xd0,
  0x02, 0x17, 0xd9, 0x06, 0x64, 0x4b, 0x7f, 0xe0, 0xc8, 0xe3, 0x7b, 0xcf,
  0xfe, 0xe1, 0xdd, 0x62, 0x29, 0xb1, 0x72, 0x12, 0xa2, 0x17, 0x51, 0xc4,
  0xc7, 0x7f, 0xbb, 0x07, 0xf0, 0x42, 0xaa, 0x73, 0x1b, 0x19, 0x9d, 0xb4,
  0x91, 0x43, 0xec, 0xb8, 0x8c, 0x42, 0x3d, 0xd2, 0xdc, 0xf4, 0xb1, 0xed,
  0x56, 0xd8, 0x9d, 0x39, 0x81, 0xbf, 0xbd, 0x03, 0x08, 0x23, 0x82, 0x12,
  0xa2, 0xb5, 0xed, 0xb1, 0x6c, 0xf9, 0x12, 0x50, 0xe8, 0xee, 0x45, 0xbc,
  0x18, 0x09, 0x0b, 0xc6, 0x09, 0x29, 0xab, 0x7f, 0x26, 0x12, 0x1c, 0x4c,
  0xc3, 0xf8, 0xb3, 0x3f, 0x06, 0xef, 0x3c, 0xf6, 0xef, 0xe1, 0x4f, 0xec,
  0xc4, 0xcd, 0x81, 0x14, 0x99, 0x32, 0x0d, 0x5b, 0xc6, 0xd1, 0xe4, 0xa9,
  0xc1, 0xf5, 0x39, 0x10, 0xcd, 0x09, 0x1e, 0xc3, 0x42, 0x5c, 0x91, 0x3b,
  0xbf, 0x2f, 0xec, 0x2e, 0x91, 0xea, 0x05, 0xbc, 0x23, 0x2a, 0xe2, 0x47,
  0x37, 0xd7, 0x7f, 0xde, 0xaf, 0x9e, 0xd3, 0xc1, 0x3a, 0x95, 0xbf, 0xa1,
  0xd5, 0x64, 0xe5, 0x7f, 0xf2, 0xb4, 0xdf, 0xc5, 0x98, 0x3c, 0x9a, 0x04,
  0x6d, 0xff, 0xcb, 0xfa, 0x64, 0x01, 0x47, 0x4c, 0x5c, 0x08, 0x2b, 0xb4,
  0xc5, 0xe4, 0xeb, 0x58, 0xf1, 0xe6, 0xe9, 0x7f, 0x3c, 0x62, 0x20, 0xf9,
  0xb2, 0xde, 0x13, 0xe2, 0xf8, 0xcb, 0xee, 0xf2, 0xe2, 0xa8, 0x98, 0xf5,
  0x7f, 0xb3, 0x3b, 0x16, 0xed, 0xac, 0x07, 0x42, 0x1a, 0x0b, 0xda, 0x14,
  0x0c, 0x17, 0xfd, 0xb8, 0xa2, 0xef, 0x98, 0xdc, 0x03, 0xd2, 0x21, 0x09,
  0x91, 0xe5, 0xab, 0x01, 0xc0, 0x2a, 0xf1, 0x7f, 0x0a, 0xef, 0xc3, 0x94,
  0x99, 0x25, 0x75, 0x26, 0x33, 0x28, 0xe5, 0xbb, 0x9e, 0xfd, 0xff, 0xff,
  0x04, 0x00, 0x00, 0x00, 0x80, 0x00, 0x00, 0x00, 0xdf, 0x0a, 0x00, 0x00,
  0xea, 0x00, 0x00, 0x00, 0xbb, 0x08, 0x00, 0x00, 0x72, 0xff, 0xff, 0xff,
  0xdc, 0xff, 0xff, 0xff, 0x3e, 0xf4, 0xff, 0xff, 0xc5, 0x0f, 0x00, 0x00,
  0xd6, 0xfd, 0xff, 0xff, 0xef, 0x02, 0x00, 0x00, 0x32, 0xff, 0xff, 0xff,
  0x21, 0x0b, 0x00, 0x00, 0x06, 0xf8, 0xff, 0xff, 0xab, 0x0a, 0x00, 0x00,
  0xfe, 0xfb, 0xff, 0xff, 0x79, 0x01, 0x00, 0x00, 0xdd, 0xfc, 0xff, 0xff,
  0xcb, 0x0c, 0x00, 0x00, 0x7d, 0xfa, 0xff, 0xff, 0xda, 0x0c, 0x00, 0x00,
  0x9e, 0xf8, 0xff, 0xff, 0xd7, 0x00, 0x00, 0x00, 0xf2, 0xf6, 0xff, 0xff,
  0xe3, 0xfd, 0xff, 0xff, 0x27, 0xfe, 0xff, 0xff, 0x7d, 0xff, 0xff, 0xff,
  0x07, 0xfc, 0xff, 0xff, 0xd9, 0xff, 0xff, 0xff, 0x7d, 0x05, 0x00, 0x00,
  0xe7, 0x0a, 0x00, 0x00, 0xee, 0xfe, 0xff, 0xff, 0xfb, 0xff, 0xff, 0xff,
  0xa8, 0x02, 0x00, 0x00, 0x2a, 0xfe, 0xff, 0xff, 0x04, 0x00, 0x00, 0x00,
  0xc0, 0x00, 0x00, 0x00, 0x59, 0x68, 0xa4, 0x7f, 0xdb, 0xd8, 0xef, 0x3e,
  0x7d, 0x6d, 0x14, 0xf6, 0x21, 0x54, 0x3a, 0x33, 0xa4, 0xb7, 0x82, 0xa0,
  0x9d, 0xdd, 0x22, 0xdc, 0x04, 0xb9, 0xaa, 0xfa, 0x51, 0xed, 0xf3, 0xdc,
  0xf5, 0x67, 0xa8, 0x07, 0x38, 0xe3, 0xbc, 0x01, 0xda, 0xc6, 0x43, 0xb6,
  0x26, 0xcc, 0xe8, 0x94, 0xea, 0x34, 0xae, 0x36, 0xbb, 0xa7, 0x49, 0x56,
  0x4a, 0x2f, 0x38, 0x81, 0x3e, 0x3d, 0x1d, 0x34, 0xeb, 0x0b, 0x14, 0x22,
  0x14, 0x51, 0xe5, 0x16, 0x2d, 0x73, 0xa6, 0xf0, 0xb1, 0xe0, 0xb8, 0x2e,
  0x00, 0x09, 0xbb, 0xc5, 0xb3, 0x7f, 0x32, 0x17, 0xec, 0x28, 0x0d, 0xd0,
  0xbf, 0xf9, 0x79, 0xfb, 0x0e, 0xf8, 0xeb, 0xe1, 0x7e, 0x31, 0xe9, 0x01,
  0xc1, 0x1a, 0x65, 0x2d, 0xd5, 0x28, 0x41, 0xfc, 0x00, 0xed, 0x3c, 0xfb,
  0x5b, 0xbc, 0xb5, 0xac, 0xfe, 0xe5, 0xbb, 0x49, 0xb4, 0x20, 0x81, 0xbb,
  0x72, 0xbc, 0x67, 0x82, 0x2e, 0x03, 0x0d, 0x05, 0xa6, 0x3c, 0x44, 0xc6,
  0x64, 0x02, 0x10, 0x9d, 0x51, 0x99, 0x69, 0x96, 0x03, 0x81, 0xa2, 0x88,
  0x94, 0x83, 0xb7, 0x55, 0x74, 0xab, 0xe3, 0xf2, 0x9a, 0x35, 0xf2, 0x2f,
  0xed, 0xe5, 0xd0, 0x71, 0xd5, 0xa0, 0x87, 0x4e, 0xea, 0xe3, 0x46, 0x79,
  0x3d, 0x81, 0x60, 0x60, 0x12, 0xad, 0xf2, 0xf8, 0x63, 0xa9, 0x4e, 0x36,
  0x04, 0x9f, 0x28, 0x29, 0xf6, 0xfe, 0xff, 0xff, 0x04, 0x00, 0x00, 0x00,
  0x18, 0x00, 0x00, 0x00, 0x9e, 0x03, 0x00, 0x00, 0x36, 0xff, 0xff, 0xff,
  0xc5, 0x02, 0x00, 0x00, 0xc0, 0x03, 0x00, 0x00, 0x72, 0x00, 0x00, 0x00,
  0xcf, 0xfb, 0xff, 0xff, 0x1a, 0xff, 0xff, 0xff, 0x04, 0x00, 0x00, 0x00,
  0x04, 0x00, 0x00, 0x00, 0x01, 0x00, 0x00, 0x00, 0x2a, 0xff, 0xff, 0xff,
  0x04, 0x00, 0x00, 0x00, 0x0c, 0x00, 0x00, 0x00, 0x01, 0x00, 0x00, 0x00,
  0x40, 0x00, 0x00, 0x00, 0x20, 0x00, 0x00, 0x00, 0x42, 0xff, 0xff, 0xff,
  0x04, 0x00, 0x00, 0x00, 0x10, 0x00, 0x00, 0x00, 0x01, 0x00, 0x00, 0x00,
  0x01, 0x00, 0x00, 0x00, 0x80, 0x00, 0x00, 0x00, 0x06, 0x00, 0x00, 0x00,
  0x24, 0xe4, 0xff, 0xff, 0x28, 0xe4, 0xff, 0xff, 0x0f, 0x00, 0x00, 0x00,
  0x4d, 0x4c, 0x49, 0x52, 0x20, 0x43, 0x6f, 0x6e, 0x76, 0x65, 0x72, 0x74,
  0x65, 0x64, 0x2e, 0x00, 0x01, 0x00, 0x00, 0x00, 0x14, 0x00, 0x00, 0x00,
  0x00, 0x00, 0x0e, 0x00, 0x18, 0x00, 0x14, 0x00, 0x10, 0x00, 0x0c, 0x00,
  0x08, 0x00, 0x04, 0x00, 0x0e, 0x00, 0x00, 0x00, 0x14, 0x00, 0x00, 0x00,
  0x1c, 0x00, 0x00, 0x00, 0x0c, 0x03, 0x00, 0x00, 0x10, 0x03, 0x00, 0x00,
  0x14, 0x03, 0x00, 0x00, 0x04, 0x00, 0x00, 0x00, 0x6d, 0x61, 0x69, 0x6e,
  0x00, 0x00, 0x00, 0x00, 0x0b, 0x00, 0x00, 0x00, 0xd0, 0x02, 0x00, 0x00,
  0x74, 0x02, 0x00, 0x00, 0x14, 0x02, 0x00, 0x00, 0xc0, 0x01, 0x00, 0x00,
  0x6c, 0x01, 0x00, 0x00, 0x18, 0x01, 0x00, 0x00, 0xd0, 0x00, 0x00, 0x00,
  0xac, 0x00, 0x00, 0x00, 0x78, 0x00, 0x00, 0x00, 0x40, 0x00, 0x00, 0x00,
  0x04, 0x00, 0x00, 0x00, 0xbe, 0xfe, 0xff, 0xff, 0x1c, 0x00, 0x00, 0x00,
  0x00, 0x00, 0x00, 0x09, 0x1c, 0x00, 0x00, 0x00, 0x20, 0x00, 0x00, 0x00,
  0x06, 0x00, 0x00, 0x00, 0x00, 0x00, 0x06, 0x00, 0x08, 0x00, 0x04, 0x00,
  0x06, 0x00, 0x00, 0x00, 0x00, 0x00, 0x80, 0x3f, 0x01, 0x00, 0x00, 0x00,
  0x1a, 0x00, 0x00, 0x00, 0x01, 0x00, 0x00, 0x00, 0x19, 0x00, 0x00, 0x00,
  0xfa, 0xfd, 0xff, 0xff, 0x14, 0x00, 0x00, 0x00, 0x00, 0x00, 0x00, 0x08,
  0x10, 0x00, 0x00, 0x00, 0x14, 0x00, 0x00, 0x00, 0x05, 0x00, 0x00, 0x00,
  0xfc, 0xe4, 0xff, 0xff, 0x01, 0x00, 0x00, 0x00, 0x19, 0x00, 0x00, 0x00,
  0x03, 0x00, 0x00, 0x00, 0x18, 0x00, 0x00, 0x00, 0x05, 0x00, 0x00, 0x00,
  0x04, 0x00, 0x00, 0x00, 0x2e, 0xfe, 0xff, 0xff, 0x14, 0x00, 0x00, 0x00,
  0x00, 0x00, 0x00, 0x1b, 0x10, 0x00, 0x00, 0x00, 0x14, 0x00, 0x00, 0x00,
  0x04, 0x00, 0x00, 0x00, 0x30, 0xe5, 0xff, 0xff, 0x01, 0x00, 0x00, 0x00,
  0x18, 0x00, 0x00, 0x00, 0x02, 0x00, 0x00, 0x00, 0x17, 0x00, 0x00, 0x00,
  0x03, 0x00, 0x00, 0x00, 0x02, 0xfe, 0xff, 0xff, 0x08, 0x00, 0x00, 0x00,
  0x0c, 0x00, 0x00, 0x00, 0x01, 0x00, 0x00, 0x00, 0x17, 0x00, 0x00, 0x00,
  0x02, 0x00, 0x00, 0x00, 0x16, 0x00, 0x00, 0x00, 0x02, 0x00, 0x00, 0x00,
  0x7e, 0xfe, 0xff, 0xff, 0x14, 0x00, 0x00, 0x00, 0x00, 0x00, 0x00, 0x01,
  0x20, 0x00, 0x00, 0x00, 0x24, 0x00, 0x00, 0x00, 0x01, 0x00, 0x00, 0x00,
  0x1c, 0xff, 0xff, 0xff, 0x00, 0x00, 0x00, 0x01, 0x01, 0x00, 0x00, 0x00,
  0x01, 0x00, 0x00, 0x00, 0x00, 0x00, 0x00, 0x01, 0x01, 0x00, 0x00, 0x00,
  0x16, 0x00, 0x00, 0x00, 0x03, 0x00, 0x00, 0x00, 0x15, 0x00, 0x00, 0x00,
  0x07, 0x00, 0x00, 0x00, 0x06, 0x00, 0x00, 0x00, 0xc2, 0xfe, 0xff, 0xff,
  0x14, 0x00, 0x00, 0x00, 0x00, 0x00, 0x00, 0x02, 0x1c, 0x00, 0x00, 0x00,
  0x20, 0x00, 0x00, 0x00, 0x02, 0x00, 0x00, 0x00, 0x10, 0xff, 0xff, 0xff,
  0x01, 0x00, 0x00, 0x00, 0x01, 0x00, 0x00, 0x00, 0x01, 0x00, 0x00, 0x00,
  0x01, 0x00, 0x00, 0x00, 0x15, 0x00, 0x00, 0x00, 0x03, 0x00, 0x00, 0x00,
  0x14, 0x00, 0x00, 0x00, 0x09, 0x00, 0x00, 0x00, 0x08, 0x00, 0x00, 0x00,
  0x00, 0x00, 0x0e, 0x00, 0x1a, 0x00, 0x14, 0x00, 0x10, 0x00, 0x0c, 0x00,
  0x0b, 0x00, 0x04, 0x00, 0x0e, 0x00, 0x00, 0x00, 0x24, 0x00, 0x00, 0x00,
  0x00, 0x00, 0x00, 0x05, 0x34, 0x00, 0x00, 0x00, 0x38, 0x00, 0x00, 0x00,
  0x03, 0x00, 0x00, 0x00, 0x00, 0x00, 0x0e, 0x00, 0x18, 0x00, 0x17, 0x00,
  0x10, 0x00, 0x0c, 0x00, 0x08, 0x00, 0x04, 0x00, 0x0e, 0x00, 0x00, 0x00,
  0x01, 0x00, 0x00, 0x00, 0x02, 0x00, 0x00, 0x00, 0x01, 0x00, 0x00, 0x00,
  0x02, 0x00, 0x00, 0x00, 0x00, 0x00, 0x00, 0x01, 0x01, 0x00, 0x00, 0x00,
  0x14, 0x00, 0x00, 0x00, 0x01, 0x00, 0x00, 0x00, 0x13, 0x00, 0x00, 0x00,
  0x62, 0xff, 0xff, 0xff, 0x20, 0x00, 0x00, 0x00, 0x00, 0x00, 0x00, 0x01,
  0x2c, 0x00, 0x00, 0x00, 0x30, 0x00, 0x00, 0x00, 0x01, 0x00, 0x00, 0x00,
  0x0c, 0x00, 0x14, 0x00, 0x13, 0x00, 0x0c, 0x00, 0x08, 0x00, 0x07, 0x00,
  0x0c, 0x00, 0x00, 0x00, 0x00, 0x00, 0x00, 0x01, 0x01, 0x00, 0x00, 0x00,
  0x01, 0x00, 0x00, 0x00, 0x00, 0x00, 0x00, 0x01, 0x01, 0x00, 0x00, 0x00,
  0x13, 0x00, 0x00, 0x00, 0x03, 0x00, 0x00, 0x00, 0x12, 0x00, 0x00, 0x00,
  0x0b, 0x00, 0x00, 0x00, 0x0a, 0x00, 0x00, 0x00, 0xb2, 0xff, 0xff, 0xff,
  0x20, 0x00, 0x00, 0x00, 0x00, 0x00, 0x00, 0x02, 0x28, 0x00, 0x00, 0x00,
  0x2c, 0x00, 0x00, 0x00, 0x02, 0x00, 0x00, 0x00, 0x0c, 0x00, 0x10, 0x00,
  0x00, 0x00, 0x0c, 0x00, 0x08, 0x00, 0x04, 0x00, 0x0c, 0x00, 0x00, 0x00,
  0x01, 0x00, 0x00, 0x00, 0x01, 0x00, 0x00, 0x00, 0x01, 0x00, 0x00, 0x00,
  0x01, 0x00, 0x00, 0x00, 0x12, 0x00, 0x00, 0x00, 0x03, 0x00, 0x00, 0x00,
  0x11, 0x00, 0x00, 0x00, 0x0d, 0x00, 0x00, 0x00, 0x0c, 0x00, 0x00, 0x00,
  0x00, 0x00, 0x0e, 0x00, 0x18, 0x00, 0x14, 0x00, 0x10, 0x00, 0x0c, 0x00,
  0x0b, 0x00, 0x04, 0x00, 0x0e, 0x00, 0x00, 0x00, 0x20, 0x00, 0x00, 0x00,
  0x00, 0x00, 0x00, 0x01, 0x28, 0x00, 0x00, 0x00, 0x2c, 0x00, 0x00, 0x00,
  0x01, 0x00, 0x00, 0x00, 0x0c, 0x00, 0x10, 0x00, 0x00, 0x00, 0x0c, 0x00,
  0x08, 0x00, 0x07, 0x00, 0x0c, 0x00, 0x00, 0x00, 0x00, 0x00, 0x00, 0x01,
  0x01, 0x00, 0x00, 0x00, 0x01, 0x00, 0x00, 0x00, 0x01, 0x00, 0x00, 0x00,
  0x11, 0x00, 0x00, 0x00, 0x03, 0x00, 0x00, 0x00, 0x10, 0x00, 0x00, 0x00,
  0x0f, 0x00, 0x00, 0x00, 0x0e, 0x00, 0x00, 0x00, 0x00, 0x00, 0x0a, 0x00,
  0x0c, 0x00, 0x00, 0x00, 0x08, 0x00, 0x04, 0x00, 0x0a, 0x00, 0x00, 0x00,
  0x08, 0x00, 0x00, 0x00, 0x0c, 0x00, 0x00, 0x00, 0x01, 0x00, 0x00, 0x00,
  0x10, 0x00, 0x00, 0x00, 0x02, 0x00, 0x00, 0x00, 0x00, 0x00, 0x00, 0x00,
  0x01, 0x00, 0x00, 0x00, 0x01, 0x00, 0x00, 0x00, 0x1a, 0x00, 0x00, 0x00,
  0x01, 0x00, 0x00, 0x00, 0x00, 0x00, 0x00, 0x00, 0x1b, 0x00, 0x00, 0x00,
  0xb8, 0x18, 0x00, 0x00, 0x5c, 0x18, 0x00, 0x00, 0x1c, 0x18, 0x00, 0x00,
  0xe0, 0x17, 0x00, 0x00, 0x44, 0x17, 0x00, 0x00, 0xa0, 0x16, 0x00, 0x00,
  0xcc, 0x14, 0x00, 0x00, 0xe8, 0x12, 0x00, 0x00, 0x74, 0x11, 0x00, 0x00,
  0xd8, 0x0f, 0x00, 0x00, 0x4c, 0x0e, 0x00, 0x00, 0xc8, 0x0c, 0x00, 0x00,
  0xe4, 0x0b, 0x00, 0x00, 0xec, 0x0a, 0x00, 0x00, 0x04, 0x0a, 0x00, 0x00,
  0x10, 0x09, 0x00, 0x00, 0x84, 0x08, 0x00, 0x00, 0x18, 0x07, 0x00, 0x00,
  0x84, 0x06, 0x00, 0x00, 0x20, 0x05, 0x00, 0x00, 0x9c, 0x04, 0x00, 0x00,
  0x08, 0x04, 0x00, 0x00, 0xa4, 0x02, 0x00, 0x00, 0x70, 0x01, 0x00, 0x00,
  0xf4, 0x00, 0x00, 0x00, 0x60, 0x00, 0x00, 0x00, 0x04, 0x00, 0x00, 0x00,
  0xca, 0xe7, 0xff, 0xff, 0x00, 0x00, 0x00, 0x01, 0x14, 0x00, 0x00, 0x00,
  0x30, 0x00, 0x00, 0x00, 0x1b, 0x00, 0x00, 0x00, 0x00, 0x00, 0x00, 0x09,
  0x34, 0x00, 0x00, 0x00, 0xb4, 0xe7, 0xff, 0xff, 0x08, 0x00, 0x00, 0x00,
  0x10, 0x00, 0x00, 0x00, 0x01, 0x00, 0x00, 0x00, 0x80, 0xff, 0xff, 0xff,
  0xff, 0xff, 0xff, 0xff, 0x01, 0x00, 0x00, 0x00, 0x00, 0x00, 0x80, 0x3b,
  0x08, 0x00, 0x00, 0x00, 0x49, 0x64, 0x65, 0x6e, 0x74, 0x69, 0x74, 0x79,
  0x00, 0x00, 0x00, 0x00, 0x02, 0x00, 0x00, 0x00, 0x01, 0x00, 0x00, 0x00,
  0x06, 0x00, 0x00, 0x00, 0x22, 0xe8, 0xff, 0xff, 0x00, 0x00, 0x00, 0x01,
  0x14, 0x00, 0x00, 0x00, 0x30, 0x00, 0x00, 0x00, 0x1a, 0x00, 0x00, 0x00,
  0x00, 0x00, 0x00, 0x09, 0x6c, 0x00, 0x00, 0x00, 0x0c, 0xe8, 0xff, 0xff,
  0x08, 0x00, 0x00, 0x00, 0x10, 0x00, 0x00, 0x00, 0x01, 0x00, 0x00, 0x00,
  0x27, 0x00, 0x00, 0x00, 0x00, 0x00, 0x00, 0x00, 0x01, 0x00, 0x00, 0x00,
  0xeb, 0x65, 0xad, 0x3d, 0x40, 0x00, 0x00, 0x00, 0x74, 0x69, 0x6e, 0x79,
  0x5f, 0x64, 0x73, 0x5f, 0x63, 0x6e, 0x6e, 0x5f, 0x31, 0x2f, 0x61, 0x63,
  0x74, 0x69, 0x76, 0x69, 0x74, 0x79, 0x5f, 0x31, 0x2f, 0x4d, 0x61, 0x74,
  0x4d, 0x75, 0x6c, 0x3b, 0x74, 0x69, 0x6e, 0x79, 0x5f, 0x64, 0x73, 0x5f,
  0x63, 0x6e, 0x6e, 0x5f, 0x31, 0x2f, 0x61, 0x63, 0x74, 0x69, 0x76, 0x69,
  0x74, 0x79, 0x5f, 0x31, 0x2f, 0x42, 0x69, 0x61, 0x73, 0x41, 0x64, 0x64,
  0x00, 0x00, 0x00, 0x00, 0x02, 0x00, 0x00, 0x00, 0x01, 0x00, 0x00, 0x00,
  0x06, 0x00, 0x00, 0x00, 0xb2, 0xe8, 0xff, 0xff, 0x00, 0x00, 0x00, 0x01,
  0x14, 0x00, 0x00, 0x00, 0x34, 0x00, 0x00, 0x00, 0x19, 0x00, 0x00, 0x00,
  0x00, 0x00, 0x00, 0x09, 0x54, 0x00, 0x00, 0x00, 0x9c, 0xe8, 0xff, 0xff,
  0x08, 0x00, 0x00, 0x00, 0x14, 0x00, 0x00, 0x00, 0x01, 0x00, 0x00, 0x00,
  0x80, 0xff, 0xff, 0xff, 0xff, 0xff, 0xff, 0xff, 0x00, 0x00, 0x00, 0x00,
  0x01, 0x00, 0x00, 0x00, 0x70, 0x63, 0x8c, 0x3c, 0x24, 0x00, 0x00, 0x00,
  0x74, 0x69, 0x6e, 0x79, 0x5f, 0x64, 0x73, 0x5f, 0x63, 0x6e, 0x6e, 0x5f,
  0x31, 0x2f, 0x67, 0x6c, 0x6f, 0x62, 0x61, 0x6c, 0x5f, 0x61, 0x76, 0x67,
  0x5f, 0x70, 0x6f, 0x6f, 0x6c, 0x5f, 0x31, 0x2f, 0x4d, 0x65, 0x61, 0x6e,
  0x00, 0x00, 0x00, 0x00, 0x02, 0x00, 0x00, 0x00, 0x01, 0x00, 0x00, 0x00,
  0x20, 0x00, 0x00, 0x00, 0x2a, 0xe9, 0xff, 0xff, 0x00, 0x00, 0x00, 0x01,
  0x14, 0x00, 0x00, 0x00, 0x30, 0x00, 0x00, 0x00, 0x18, 0x00, 0x00, 0x00,
  0x00, 0x00, 0x00, 0x09, 0x08, 0x01, 0x00, 0x00, 0x14, 0xe9, 0xff, 0xff,
  0x08, 0x00, 0x00, 0x00, 0x10, 0x00, 0x00, 0x00, 0x01, 0x00, 0x00, 0x00,
  0x80, 0xff, 0xff, 0xff, 0xff, 0xff, 0xff, 0xff, 0x01, 0x00, 0x00, 0x00,
  0xce, 0xbc, 0x7e, 0x3d, 0xdc, 0x00, 0x00, 0x00, 0x74, 0x69, 0x6e, 0x79,
  0x5f, 0x64, 0x73, 0x5f, 0x63, 0x6e, 0x6e, 0x5f, 0x31, 0x2f, 0x64, 0x73,
  0x5f, 0x72, 0x65, 0x6c, 0x75, 0x5f, 0x32, 0x5f, 0x31, 0x2f, 0x52, 0x65,
  0x6c, 0x75, 0x3b, 0x74, 0x69, 0x6e, 0x79, 0x5f, 0x64, 0x73, 0x5f, 0x63,
  0x6e, 0x6e, 0x5f, 0x31, 0x2f, 0x64, 0x73, 0x5f, 0x62, 0x6e, 0x5f, 0x32,
  0x5f, 0x31, 0x2f, 0x62, 0x61, 0x74, 0x63, 0x68, 0x6e, 0x6f, 0x72, 0x6d,
  0x2f, 0x61, 0x64, 0x64, 0x5f, 0x31, 0x3b, 0x74, 0x69, 0x6e, 0x79, 0x5f,
  0x64, 0x73, 0x5f, 0x63, 0x6e, 0x6e, 0x5f, 0x31, 0x2f, 0x64, 0x73, 0x5f,
  0x63, 0x6f, 0x6e, 0x76, 0x5f, 0x32, 0x5f, 0x31, 0x2f, 0x53, 0x71, 0x75,
  0x65, 0x65, 0x7a, 0x65, 0x3b, 0x74, 0x69, 0x6e, 0x79, 0x5f, 0x64, 0x73,
  0x5f, 0x63, 0x6e, 0x6e, 0x5f, 0x31, 0x2f, 0x64, 0x73, 0x5f, 0x62, 0x6e,
  0x5f, 0x32, 0x5f, 0x31, 0x2f, 0x62, 0x61, 0x74, 0x63, 0x68, 0x6e, 0x6f,
  0x72, 0x6d, 0x2f, 0x6d, 0x75, 0x6c, 0x5f, 0x31, 0x3b, 0x74, 0x69, 0x6e,
  0x79, 0x5f, 0x64, 0x73, 0x5f, 0x63, 0x6e, 0x6e, 0x5f, 0x31, 0x2f, 0x64,
  0x73, 0x5f, 0x62, 0x6e, 0x5f, 0x32, 0x5f, 0x31, 0x2f, 0x62, 0x61, 0x74,
  0x63, 0x68, 0x6e, 0x6f, 0x72, 0x6d, 0x2f, 0x6d, 0x75, 0x6c, 0x3b, 0x74,
  0x69, 0x6e, 0x79, 0x5f, 0x64, 0x73, 0x5f, 0x63, 0x6e, 0x6e, 0x5f, 0x31,
  0x2f, 0x64, 0x73, 0x5f, 0x62, 0x6e, 0x5f, 0x32, 0x5f, 0x31, 0x2f, 0x62,
  0x61, 0x74, 0x63, 0x68, 0x6e, 0x6f, 0x72, 0x6d, 0x2f, 0x73, 0x75, 0x62,
  0x00, 0x00, 0x00, 0x00, 0x03, 0x00, 0x00, 0x00, 0x01, 0x00, 0x00, 0x00,
  0x40, 0x00, 0x00, 0x00, 0x20, 0x00, 0x00, 0x00, 0x5a, 0xea, 0xff, 0xff,
  0x00, 0x00, 0x00, 0x01, 0x14, 0x00, 0x00, 0x00, 0x34, 0x00, 0x00, 0x00,
  0x17, 0x00, 0x00, 0x00, 0x00, 0x00, 0x00, 0x09, 0x34, 0x01, 0x00, 0x00,
  0x44, 0xea, 0xff, 0xff, 0x08, 0x00, 0x00, 0x00, 0x14, 0x00, 0x00, 0x00,
  0x01, 0x00, 0x00, 0x00, 0x80, 0xff, 0xff, 0xff, 0xff, 0xff, 0xff, 0xff,
  0x00, 0x00, 0x00, 0x00, 0x01, 0x00, 0x00, 0x00, 0xce, 0xbc, 0x7e, 0x3d,
  0x07, 0x01, 0x00, 0x00, 0x74, 0x69, 0x6e, 0x79, 0x5f, 0x64, 0x73, 0x5f,
  0x63, 0x6e, 0x6e, 0x5f, 0x31, 0x2f, 0x64, 0x73, 0x5f, 0x72, 0x65, 0x6c,
  0x75, 0x5f, 0x32, 0x5f, 0x31, 0x2f, 0x52, 0x65, 0x6c, 0x75, 0x3b, 0x74,
  0x69, 0x6e, 0x79, 0x5f, 0x64, 0x73, 0x5f, 0x63, 0x6e, 0x6e, 0x5f, 0x31,
  0x2f, 0x64, 0x73, 0x5f, 0x62, 0x6e, 0x5f, 0x32, 0x5f, 0x31, 0x2f, 0x62,
  0x61, 0x74, 0x63, 0x68, 0x6e, 0x6f, 0x72, 0x6d, 0x2f, 0x61, 0x64, 0x64,
  0x5f, 0x31, 0x3b, 0x74, 0x69, 0x6e, 0x79, 0x5f, 0x64, 0x73, 0x5f, 0x63,
  0x6e, 0x6e, 0x5f, 0x31, 0x2f, 0x64, 0x73, 0x5f, 0x63, 0x6f, 0x6e, 0x76,
  0x5f, 0x32, 0x5f, 0x31, 0x2f, 0x53, 0x71, 0x75, 0x65, 0x65, 0x7a, 0x65,
  0x3b, 0x74, 0x69, 0x6e, 0x79, 0x5f, 0x64, 0x73, 0x5f, 0x63, 0x6e, 0x6e,
  0x5f, 0x31, 0x2f, 0x64, 0x73, 0x5f, 0x62, 0x6e, 0x5f, 0x32, 0x5f, 0x31,
  0x2f, 0x62, 0x61, 0x74, 0x63, 0x68, 0x6e, 0x6f, 0x72, 0x6d, 0x2f, 0x6d,
  0x75, 0x6c, 0x5f, 0x31, 0x3b, 0x74, 0x69, 0x6e, 0x79, 0x5f, 0x64, 0x73,
  0x5f, 0x63, 0x6e, 0x6e, 0x5f, 0x31, 0x2f, 0x64, 0x73, 0x5f, 0x62, 0x6e,
  0x5f, 0x32, 0x5f, 0x31, 0x2f, 0x62, 0x61, 0x74, 0x63, 0x68, 0x6e, 0x6f,
  0x72, 0x6d, 0x2f, 0x6d, 0x75, 0x6c, 0x3b, 0x74, 0x69, 0x6e, 0x79, 0x5f,
  0x64, 0x73, 0x5f, 0x63, 0x6e, 0x6e, 0x5f, 0x31, 0x2f, 0x64, 0x73, 0x5f,
  0x62, 0x6e, 0x5f, 0x32, 0x5f, 0x31, 0x2f, 0x62, 0x61, 0x74, 0x63, 0x68,
  0x6e, 0x6f, 0x72, 0x6d, 0x2f, 0x73, 0x75, 0x62, 0x3b, 0x74, 0x69, 0x6e,
  0x79, 0x5f, 0x64, 0x73, 0x5f, 0x63, 0x6e, 0x6e, 0x5f, 0x31, 0x2f, 0x64,
  0x73, 0x5f, 0x63, 0x6f, 0x6e, 0x76, 0x5f, 0x32, 0x5f, 0x31, 0x2f, 0x73,
  0x65, 0x70, 0x61, 0x72, 0x61, 0x62, 0x6c, 0x65, 0x5f, 0x63, 0x6f, 0x6e,
  0x76, 0x32, 0x64, 0x00, 0x04, 0x00, 0x00, 0x00, 0x01, 0x00, 0x00, 0x00,
  0x01, 0x00, 0x00, 0x00, 0x40, 0x00, 0x00, 0x00, 0x20, 0x00, 0x00, 0x00,
  0xba, 0xeb, 0xff, 0xff, 0x00, 0x00, 0x00, 0x01, 0x14, 0x00, 0x00, 0x00,
  0x34, 0x00, 0x00, 0x00, 0x16, 0x00, 0x00, 0x00, 0x00, 0x00, 0x00, 0x09,
  0x64, 0x00, 0x00, 0x00, 0xa4, 0xeb, 0xff, 0xff, 0x08, 0x00, 0x00, 0x00,
  0x14, 0x00, 0x00, 0x00, 0x01, 0x00, 0x00, 0x00, 0xd2, 0xff, 0xff, 0xff,
  0xff, 0xff, 0xff, 0xff, 0x00, 0x00, 0x00, 0x00, 0x01, 0x00, 0x00, 0x00,
  0x6d, 0x4a, 0x10, 0x3d, 0x34, 0x00, 0x00, 0x00, 0x74, 0x69, 0x6e, 0x79,
  0x5f, 0x64, 0x73, 0x5f, 0x63, 0x6e, 0x6e, 0x5f, 0x31, 0x2f, 0x64, 0x73,
  0x5f, 0x63, 0x6f, 0x6e, 0x76, 0x5f, 0x32, 0x5f, 0x31, 0x2f, 0x73, 0x65,
  0x70, 0x61, 0x72, 0x61, 0x62, 0x6c, 0x65, 0x5f, 0x63, 0x6f, 0x6e, 0x76,
  0x32, 0x64, 0x2f, 0x64, 0x65, 0x70, 0x74, 0x68, 0x77, 0x69, 0x73, 0x65,
  0x00, 0x00, 0x00, 0x00, 0x04, 0x00, 0x00, 0x00, 0x01, 0x00, 0x00, 0x00,
  0x01, 0x00, 0x00, 0x00, 0x40, 0x00, 0x00, 0x00, 0x18, 0x00, 0x00, 0x00,
  0x4a, 0xec, 0xff, 0xff, 0x00, 0x00, 0x00, 0x01, 0x14, 0x00, 0x00, 0x00,
  0x34, 0x00, 0x00, 0x00, 0x15, 0x00, 0x00, 0x00, 0x00, 0x00, 0x00, 0x09,
  0x54, 0x00, 0x00, 0x00, 0x34, 0xec, 0xff, 0xff, 0x08, 0x00, 0x00, 0x00,
  0x14, 0x00, 0x00, 0x00, 0x01, 0x00, 0x00, 0x00, 0x80, 0xff, 0xff, 0xff,
  0xff, 0xff, 0xff, 0xff, 0x00, 0x00, 0x00, 0x00, 0x01, 0x00, 0x00, 0x00,
  0xa6, 0xd8, 0x6d, 0x3d, 0x24, 0x00, 0x00, 0x00, 0x74, 0x69, 0x6e, 0x79,
  0x5f, 0x64, 0x73, 0x5f, 0x63, 0x6e, 0x6e, 0x5f, 0x31, 0x2f, 0x61, 0x76,
  0x67, 0x5f, 0x70, 0x6f, 0x6f, 0x6c, 0x5f, 0x31, 0x5f, 0x31, 0x2f, 0x41,
  0x76, 0x67, 0x50, 0x6f, 0x6f, 0x6c, 0x31, 0x44, 0x00, 0x00, 0x00, 0x00,
  0x04, 0x00, 0x00, 0x00, 0x01, 0x00, 0x00, 0x00, 0x01, 0x00, 0x00, 0x00,
  0x40, 0x00, 0x00, 0x00, 0x18, 0x00, 0x00, 0x00, 0xca, 0xec, 0xff, 0xff,
  0x00, 0x00, 0x00, 0x01, 0x14, 0x00, 0x00, 0x00, 0x34, 0x00, 0x00, 0x00,
  0x14, 0x00, 0x00, 0x00, 0x00, 0x00, 0x00, 0x09, 0x34, 0x01, 0x00, 0x00,
  0xb4, 0xec, 0xff, 0xff, 0x08, 0x00, 0x00, 0x00, 0x14, 0x00, 0x00, 0x00,
  0x01, 0x00, 0x00, 0x00, 0x80, 0xff, 0xff, 0xff, 0xff, 0xff, 0xff, 0xff,
  0x00, 0x00, 0x00, 0x00, 0x01, 0x00, 0x00, 0x00, 0xa6, 0xd8, 0x6d, 0x3d,
  0x07, 0x01, 0x00, 0x00, 0x74, 0x69, 0x6e, 0x79, 0x5f, 0x64, 0x73, 0x5f,
  0x63, 0x6e, 0x6e, 0x5f, 0x31, 0x2f, 0x64, 0x73, 0x5f, 0x72, 0x65, 0x6c,
  0x75, 0x5f, 0x31, 0x5f, 0x31, 0x2f, 0x52, 0x65, 0x6c, 0x75, 0x3b, 0x74,
  0x69, 0x6e, 0x79, 0x5f, 0x64, 0x73, 0x5f, 0x63, 0x6e, 0x6e, 0x5f, 0x31,
  0x2f, 0x64, 0x73, 0x5f, 0x62, 0x6e, 0x5f, 0x31, 0x5f, 0x31, 0x2f, 0x62,
  0x61, 0x74, 0x63, 0x68, 0x6e, 0x6f, 0x72, 0x6d, 0x2f, 0x61, 0x64, 0x64,
  0x5f, 0x31, 0x3b, 0x74, 0x69, 0x6e, 0x79, 0x5f, 0x64, 0x73, 0x5f, 0x63,
  0x6e, 0x6e, 0x5f, 0x31, 0x2f, 0x64, 0x73, 0x5f, 0x63, 0x6f, 0x6e, 0x76,
  0x5f, 0x31, 0x5f, 0x31, 0x2f, 0x53, 0x71, 0x75, 0x65, 0x65, 0x7a, 0x65,
  0x3b, 0x74, 0x69, 0x6e, 0x79, 0x5f, 0x64, 0x73, 0x5f, 0x63, 0x6e, 0x6e,
  0x5f, 0x31, 0x2f, 0x64, 0x73, 0x5f, 0x62, 0x6e, 0x5f, 0x31, 0x5f, 0x31,
  0x2f, 0x62, 0x61, 0x74, 0x63, 0x68, 0x6e, 0x6f, 0x72, 0x6d, 0x2f, 0x6d,
  0x75, 0x6c, 0x5f, 0x31, 0x3b, 0x74, 0x69, 0x6e, 0x79, 0x5f, 0x64, 0x73,
  0x5f, 0x63, 0x6e, 0x6e, 0x5f, 0x31, 0x2f, 0x64, 0x73, 0x5f, 0x62, 0x6e,
  0x5f, 0x31, 0x5f, 0x31, 0x2f, 0x62, 0x61, 0x74, 0x63, 0x68, 0x6e, 0x6f,
  0x72, 0x6d, 0x2f, 0x6d, 0x75, 0x6c, 0x3b, 0x74, 0x69, 0x6e, 0x79, 0x5f,
  0x64, 0x73, 0x5f, 0x63, 0x6e, 0x6e, 0x5f, 0x31, 0x2f, 0x64, 0x73, 0x5f,
  0x62, 0x6e, 0x5f, 0x31, 0x5f, 0x31, 0x2f, 0x62, 0x61, 0x74, 0x63, 0x68,
  0x6e, 0x6f, 0x72, 0x6d, 0x2f, 0x73, 0x75, 0x62, 0x3b, 0x74, 0x69, 0x6e,
  0x79, 0x5f, 0x64, 0x73, 0x5f, 0x63, 0x6e, 0x6e, 0x5f, 0x31, 0x2f, 0x64,
  0x73, 0x5f, 0x63, 0x6f, 0x6e, 0x76, 0x5f, 0x31, 0x5f, 0x31, 0x2f, 0x73,
  0x65, 0x70, 0x61, 0x72, 0x61, 0x62, 0x6c, 0x65, 0x5f, 0x63, 0x6f, 0x6e,
  0x76, 0x32, 0x64, 0x00, 0x04, 0x00, 0x00, 0x00, 0x01, 0x00, 0x00, 0x00,
  0x01, 0x00, 0x00, 0x00, 0x80, 0x00, 0x00, 0x00, 0x18, 0x00, 0x00, 0x00,
  0x2a, 0xee, 0xff, 0xff, 0x00, 0x00, 0x00, 0x01, 0x14, 0x00, 0x00, 0x00,
  0x34, 0x00, 0x00, 0x00, 0x13, 0x00, 0x00, 0x00, 0x00, 0x00, 0x00, 0x09,
  0x64, 0x00, 0x00, 0x00, 0x14, 0xee, 0xff, 0xff, 0x08, 0x00, 0x00, 0x00,
  0x14, 0x00, 0x00, 0x00, 0x01, 0x00, 0x00, 0x00, 0x0f, 0x00, 0x00, 0x00,
  0x00, 0x00, 0x00, 0x00, 0x00, 0x00, 0x00, 0x00, 0x01, 0x00, 0x00, 0x00,
  0xce, 0xd6, 0x6c, 0x3d, 0x34, 0x00, 0x00, 0x00, 0x74, 0x69, 0x6e, 0x79,
  0x5f, 0x64, 0x73, 0x5f, 0x63, 0x6e, 0x6e, 0x5f, 0x31, 0x2f, 0x64, 0x73,
  0x5f, 0x63, 0x6f, 0x6e, 0x76, 0x5f, 0x31, 0x5f, 0x31, 0x2f, 0x73, 0x65,
  0x70, 0x61, 0x72, 0x61, 0x62, 0x6c, 0x65, 0x5f, 0x63, 0x6f, 0x6e, 0x76,
  0x32, 0x64, 0x2f, 0x64, 0x65, 0x70, 0x74, 0x68, 0x77, 0x69, 0x73, 0x65,
  0x00, 0x00, 0x00, 0x00, 0x04, 0x00, 0x00, 0x00, 0x01, 0x00, 0x00, 0x00,
  0x01, 0x00, 0x00, 0x00, 0x80, 0x00, 0x00, 0x00, 0x0c, 0x00, 0x00, 0x00,
  0xba, 0xee, 0xff, 0xff, 0x00, 0x00, 0x00, 0x01, 0x14, 0x00, 0x00, 0x00,
  0x34, 0x00, 0x00, 0x00, 0x12, 0x00, 0x00, 0x00, 0x00, 0x00, 0x00, 0x09,
  0x3c, 0x01, 0x00, 0x00, 0xa4, 0xee, 0xff, 0xff, 0x08, 0x00, 0x00, 0x00,
  0x14, 0x00, 0x00, 0x00, 0x01, 0x00, 0x00, 0x00, 0x80, 0xff, 0xff, 0xff,
  0xff, 0xff, 0xff, 0xff, 0x00, 0x00, 0x00, 0x00, 0x01, 0x00, 0x00, 0x00,
  0xc5, 0x62, 0x6b, 0x3d, 0x0e, 0x01, 0x00, 0x00, 0x74, 0x69, 0x6e, 0x79,
  0x5f, 0x64, 0x73, 0x5f, 0x63, 0x6e, 0x6e, 0x5f, 0x31, 0x2f, 0x73, 0x74,
  0x65, 0x6d, 0x5f, 0x72, 0x65, 0x6c, 0x75, 0x5f, 0x31, 0x2f, 0x52, 0x65,
  0x6c, 0x75, 0x3b, 0x74, 0x69, 0x6e, 0x79, 0x5f, 0x64, 0x73, 0x5f, 0x63,
  0x6e, 0x6e, 0x5f, 0x31, 0x2f, 0x73, 0x74, 0x65, 0x6d, 0x5f, 0x62, 0x6e,
  0x5f, 0x31, 0x2f, 0x62, 0x61, 0x74, 0x63, 0x68, 0x6e, 0x6f, 0x72, 0x6d,
  0x2f, 0x61, 0x64, 0x64, 0x5f, 0x31, 0x3b, 0x74, 0x69, 0x6e, 0x79, 0x5f,
  0x64, 0x73, 0x5f, 0x63, 0x6e, 0x6e, 0x5f, 0x31, 0x2f, 0x73, 0x74, 0x65,
  0x6d, 0x5f, 0x63, 0x6f, 0x6e, 0x76, 0x5f, 0x31, 0x2f, 0x63, 0x6f, 0x6e,
  0x76, 0x6f, 0x6c, 0x75, 0x74, 0x69, 0x6f, 0x6e, 0x2f, 0x53, 0x71, 0x75,
  0x65, 0x65, 0x7a, 0x65, 0x3b, 0x74, 0x69, 0x6e, 0x79, 0x5f, 0x64, 0x73,
  0x5f, 0x63, 0x6e, 0x6e, 0x5f, 0x31, 0x2f, 0x73, 0x74, 0x65, 0x6d, 0x5f,
  0x62, 0x6e, 0x5f, 0x31, 0x2f, 0x62, 0x61, 0x74, 0x63, 0x68, 0x6e, 0x6f,
  0x72, 0x6d, 0x2f, 0x6d, 0x75, 0x6c, 0x5f, 0x31, 0x3b, 0x74, 0x69, 0x6e,
  0x79, 0x5f, 0x64, 0x73, 0x5f, 0x63, 0x6e, 0x6e, 0x5f, 0x31, 0x2f, 0x73,
  0x74, 0x65, 0x6d, 0x5f, 0x62, 0x6e, 0x5f, 0x31, 0x2f, 0x62, 0x61, 0x74,
  0x63, 0x68, 0x6e, 0x6f, 0x72, 0x6d, 0x2f, 0x6d, 0x75, 0x6c, 0x3b, 0x74,
  0x69, 0x6e, 0x79, 0x5f, 0x64, 0x73, 0x5f, 0x63, 0x6e, 0x6e, 0x5f, 0x31,
  0x2f, 0x73, 0x74, 0x65, 0x6d, 0x5f, 0x62, 0x6e, 0x5f, 0x31, 0x2f, 0x62,
  0x61, 0x74, 0x63, 0x68, 0x6e, 0x6f, 0x72, 0x6d, 0x2f, 0x73, 0x75, 0x62,
  0x3b, 0x74, 0x69, 0x6e, 0x79, 0x5f, 0x64, 0x73, 0x5f, 0x63, 0x6e, 0x6e,
  0x5f, 0x31, 0x2f, 0x73, 0x74, 0x65, 0x6d, 0x5f, 0x63, 0x6f, 0x6e, 0x76,
  0x5f, 0x31, 0x2f, 0x63, 0x6f, 0x6e, 0x76, 0x6f, 0x6c, 0x75, 0x74, 0x69,
  0x6f, 0x6e, 0x00, 0x00, 0x04, 0x00, 0x00, 0x00, 0x01, 0x00, 0x00, 0x00,
  0x01, 0x00, 0x00, 0x00, 0x80, 0x00, 0x00, 0x00, 0x0c, 0x00, 0x00, 0x00,
  0x22, 0xf0, 0xff, 0xff, 0x00, 0x00, 0x00, 0x01, 0x14, 0x00, 0x00, 0x00,
  0x30, 0x00, 0x00, 0x00, 0x11, 0x00, 0x00, 0x00, 0x00, 0x00, 0x00, 0x09,
  0x5c, 0x00, 0x00, 0x00, 0x0c, 0xf0, 0xff, 0xff, 0x08, 0x00, 0x00, 0x00,
  0x10, 0x00, 0x00, 0x00, 0x01, 0x00, 0x00, 0x00, 0x08, 0x00, 0x00, 0x00,
  0x00, 0x00, 0x00, 0x00, 0x01, 0x00, 0x00, 0x00, 0xc6, 0x79, 0x0b, 0x3e,
  0x31, 0x00, 0x00, 0x00, 0x74, 0x69, 0x6e, 0x79, 0x5f, 0x64, 0x73, 0x5f,
  0x63, 0x6e, 0x6e, 0x5f, 0x31, 0x2f, 0x73, 0x74, 0x65, 0x6d, 0x5f, 0x63,
  0x6f, 0x6e, 0x76, 0x5f, 0x31, 0x2f, 0x63, 0x6f, 0x6e, 0x76, 0x6f, 0x6c,
  0x75, 0x74, 0x69, 0x6f, 0x6e, 0x2f, 0x45, 0x78, 0x70, 0x61, 0x6e, 0x64,
  0x44, 0x69, 0x6d, 0x73, 0x31, 0x00, 0x00, 0x00, 0x04, 0x00, 0x00, 0x00,
  0x01, 0x00, 0x00, 0x00, 0x01, 0x00, 0x00, 0x00, 0x80, 0x00, 0x00, 0x00,
  0x06, 0x00, 0x00, 0x00, 0xaa, 0xf0, 0xff, 0xff, 0x00, 0x00, 0x00, 0x01,
  0x14, 0x00, 0x00, 0x00, 0xb8, 0x00, 0x00, 0x00, 0x10, 0x00, 0x00, 0x00,
  0x00, 0x00, 0x00, 0x09, 0xc4, 0x00, 0x00, 0x00, 0x94, 0xf0, 0xff, 0xff,
  0x08, 0x00, 0x00, 0x00, 0x6c, 0x00, 0x00, 0x00, 0x0c, 0x00, 0x00, 0x00,
  0x00, 0x00, 0x00, 0x00, 0x00, 0x00, 0x00, 0x00, 0x00, 0x00, 0x00, 0x00,
  0x00, 0x00, 0x00, 0x00, 0x00, 0x00, 0x00, 0x00, 0x00, 0x00, 0x00, 0x00,
  0x00, 0x00, 0x00, 0x00, 0x00, 0x00, 0x00, 0x00, 0x00, 0x00, 0x00, 0x00,
  0x00, 0x00, 0x00, 0x00, 0x00, 0x00, 0x00, 0x00, 0x00, 0x00, 0x00, 0x00,
  0x00, 0x00, 0x00, 0x00, 0x00, 0x00, 0x00, 0x00, 0x00, 0x00, 0x00, 0x00,
  0x00, 0x00, 0x00, 0x00, 0x00, 0x00, 0x00, 0x00, 0x00, 0x00, 0x00, 0x00,
  0x00, 0x00, 0x00, 0x00, 0x00, 0x00, 0x00, 0x00, 0x00, 0x00, 0x00, 0x00,
  0x00, 0x00, 0x00, 0x00, 0x00, 0x00, 0x00, 0x00, 0x00, 0x00, 0x00, 0x00,
  0x00, 0x00, 0x00, 0x00, 0x0c, 0x00, 0x00, 0x00, 0xae, 0xfe, 0x6e, 0x3b,
  0x91, 0x7a, 0xa5, 0x3b, 0x06, 0xba, 0xea, 0x3b, 0xbc, 0xfc, 0x34, 0x3b,
  0xd7, 0xcd, 0xa7, 0x3b, 0x3f, 0xdd, 0x63, 0x3b, 0xd0, 0xaa, 0x6e, 0x3b,
  0xa8, 0x55, 0x8e, 0x3b, 0xa1, 0x07, 0x3f, 0x3b, 0xd5, 0x34, 0x59, 0x3b,
  0x25, 0x42, 0x13, 0x3b, 0x55, 0xa6, 0x21, 0x3b, 0x13, 0x00, 0x00, 0x00,
  0x74, 0x66, 0x6c, 0x2e, 0x70, 0x73, 0x65, 0x75, 0x64, 0x6f, 0x5f, 0x71,
  0x63, 0x6f, 0x6e, 0x73, 0x74, 0x31, 0x31, 0x00, 0x04, 0x00, 0x00, 0x00,
  0x0c, 0x00, 0x00, 0x00, 0x01, 0x00, 0x00, 0x00, 0x03, 0x00, 0x00, 0x00,
  0x06, 0x00, 0x00, 0x00, 0x9a, 0xf1, 0xff, 0xff, 0x00, 0x00, 0x00, 0x01,
  0x14, 0x00, 0x00, 0x00, 0xb8, 0x00, 0x00, 0x00, 0x0f, 0x00, 0x00, 0x00,
  0x00, 0x00, 0x00, 0x02, 0xc4, 0x00, 0x00, 0x00, 0x84, 0xf1, 0xff, 0xff,
  0x08, 0x00, 0x00, 0x00, 0x6c, 0x00, 0x00, 0x00, 0x0c, 0x00, 0x00, 0x00,
  0x00, 0x00, 0x00, 0x00, 0x00, 0x00, 0x00, 0x00, 0x00, 0x00, 0x00, 0x00,
  0x00, 0x00, 0x00, 0x00, 0x00, 0x00, 0x00, 0x00, 0x00, 0x00, 0x00, 0x00,
  0x00, 0x00, 0x00, 0x00, 0x00, 0x00, 0x00, 0x00, 0x00, 0x00, 0x00, 0x00,
  0x00, 0x00, 0x00, 0x00, 0x00, 0x00, 0x00, 0x00, 0x00, 0x00, 0x00, 0x00,
  0x00, 0x00, 0x00, 0x00, 0x00, 0x00, 0x00, 0x00, 0x00, 0x00, 0x00, 0x00,
  0x00, 0x00, 0x00, 0x00, 0x00, 0x00, 0x00, 0x00, 0x00, 0x00, 0x00, 0x00,
  0x00, 0x00, 0x00, 0x00, 0x00, 0x00, 0x00, 0x00, 0x00, 0x00, 0x00, 0x00,
  0x00, 0x00, 0x00, 0x00, 0x00, 0x00, 0x00, 0x00, 0x00, 0x00, 0x00, 0x00,
  0x00, 0x00, 0x00, 0x00, 0x0c, 0x00, 0x00, 0x00, 0xf8, 0x35, 0x02, 0x3a,
  0x87, 0x50, 0x34, 0x3a, 0x51, 0xc5, 0x7f, 0x3a, 0xa3, 0x36, 0xc5, 0x39,
  0x2c, 0xd9, 0x36, 0x3a, 0x0a, 0x4b, 0xf8, 0x39, 0x46, 0x08, 0x02, 0x3a,
  0x6e, 0x18, 0x1b, 0x3a, 0x06, 0x28, 0xd0, 0x39, 0x03, 0xae, 0xec, 0x39,
  0xec, 0x75, 0xa0, 0x39, 0x6a, 0x24, 0xb0, 0x39, 0x13, 0x00, 0x00, 0x00,
  0x74, 0x66, 0x6c, 0x2e, 0x70, 0x73, 0x65, 0x75, 0x64, 0x6f, 0x5f, 0x71,
  0x63, 0x6f, 0x6e, 0x73, 0x74, 0x31, 0x30, 0x00, 0x01, 0x00, 0x00, 0x00,
  0x0c, 0x00, 0x00, 0x00, 0x7e, 0xf2, 0xff, 0xff, 0x00, 0x00, 0x00, 0x01,
  0x14, 0x00, 0x00, 0x00, 0xbc, 0x00, 0x00, 0x00, 0x0e, 0x00, 0x00, 0x00,
  0x00, 0x00, 0x00, 0x09, 0xc8, 0x00, 0x00, 0x00, 0x22, 0xfb, 0xff, 0xff,
  0x03, 0x00, 0x00, 0x00, 0x08, 0x00, 0x00, 0x00, 0x6c, 0x00, 0x00, 0x00,
  0x0c, 0x00, 0x00, 0x00, 0x00, 0x00, 0x00, 0x00, 0x00, 0x00, 0x00, 0x00,
  0x00, 0x00, 0x00, 0x00, 0x00, 0x00, 0x00, 0x00, 0x00, 0x00, 0x00, 0x00,
  0x00, 0x00, 0x00, 0x00, 0x00, 0x00, 0x00, 0x00, 0x00, 0x00, 0x00, 0x00,
  0x00, 0x00, 0x00, 0x00, 0x00, 0x00, 0x00, 0x00, 0x00, 0x00, 0x00, 0x00,
  0x00, 0x00, 0x00, 0x00, 0x00, 0x00, 0x00, 0x00, 0x00, 0x00, 0x00, 0x00,
  0x00, 0x00, 0x00, 0x00, 0x00, 0x00, 0x00, 0x00, 0x00, 0x00, 0x00, 0x00,
  0x00, 0x00, 0x00, 0x00, 0x00, 0x00, 0x00, 0x00, 0x00, 0x00, 0x00, 0x00,
  0x00, 0x00, 0x00, 0x00, 0x00, 0x00, 0x00, 0x00, 0x00, 0x00, 0x00, 0x00,
  0x00, 0x00, 0x00, 0x00, 0x00, 0x00, 0x00, 0x00, 0x0c, 0x00, 0x00, 0x00,
  0x31, 0x77, 0x22, 0x3b, 0x75, 0xd2, 0x00, 0x3b, 0xe1, 0x54, 0x0e, 0x3b,
  0xeb, 0xd5, 0x27, 0x3b, 0x0f, 0xc9, 0x14, 0x3b, 0x12, 0x0c, 0x14, 0x3b,
  0x8c, 0x5f, 0x32, 0x3b, 0xc7, 0x09, 0xc2, 0x3a, 0xde, 0xec, 0x01, 0x3b,
  0x66, 0xbc, 0x16, 0x3b, 0x58, 0x63, 0x0f, 0x3b, 0xb6, 0xdc, 0x15, 0x3b,
  0x12, 0x00, 0x00, 0x00, 0x74, 0x66, 0x6c, 0x2e, 0x70, 0x73, 0x65, 0x75,
  0x64, 0x6f, 0x5f, 0x71, 0x63, 0x6f, 0x6e, 0x73, 0x74, 0x39, 0x00, 0x00,
  0x04, 0x00, 0x00, 0x00, 0x01, 0x00, 0x00, 0x00, 0x01, 0x00, 0x00, 0x00,
  0x05, 0x00, 0x00, 0x00, 0x0c, 0x00, 0x00, 0x00, 0x72, 0xf3, 0xff, 0xff,
  0x00, 0x00, 0x00, 0x01, 0x14, 0x00, 0x00, 0x00, 0xb4, 0x00, 0x00, 0x00,
  0x0d, 0x00, 0x00, 0x00, 0x00, 0x00, 0x00, 0x02, 0xc0, 0x00, 0x00, 0x00,
  0x5c, 0xf3, 0xff, 0xff, 0x08, 0x00, 0x00, 0x00, 0x68, 0x00, 0x00, 0x00,
  0x0c, 0x00, 0x00, 0x00, 0x00, 0x00, 0x00, 0x00, 0x00, 0x00, 0x00, 0x00,
  0x00, 0x00, 0x00, 0x00, 0x00, 0x00, 0x00, 0x00, 0x00, 0x00, 0x00, 0x00,
  0x00, 0x00, 0x00, 0x00, 0x00, 0x00, 0x00, 0x00, 0x00, 0x00, 0x00, 0x00,
  0x00, 0x00, 0x00, 0x00, 0x00, 0x00, 0x00, 0x00, 0x00, 0x00, 0x00, 0x00,
  0x00, 0x00, 0x00, 0x00, 0x00, 0x00, 0x00, 0x00, 0x00, 0x00, 0x00, 0x00,
  0x00, 0x00, 0x00, 0x00, 0x00, 0x00, 0x00, 0x00, 0x00, 0x00, 0x00, 0x00,
  0x00, 0x00, 0x00, 0x00, 0x00, 0x00, 0x00, 0x00, 0x00, 0x00, 0x00, 0x00,
  0x00, 0x00, 0x00, 0x00, 0x00, 0x00, 0x00, 0x00, 0x00, 0x00, 0x00, 0x00,
  0x00, 0x00, 0x00, 0x00, 0x0c, 0x00, 0x00, 0x00, 0x19, 0x62, 0x15, 0x39,
  0xca, 0xe5, 0xec, 0x38, 0xd5, 0xde, 0x02, 0x39, 0x20, 0x52, 0x1a, 0x39,
  0xf8, 0xcd, 0x08, 0x39, 0x33, 0x20, 0x08, 0x39, 0x87, 0x02, 0x24, 0x39,
  0xd7, 0x69, 0xb2, 0x38, 0x21, 0xed, 0xee, 0x38, 0x1a, 0x99, 0x0a, 0x39,
  0x84, 0xd7, 0x03, 0x39, 0x6d, 0xcb, 0x09, 0x39, 0x12, 0x00, 0x00, 0x00,
  0x74, 0x66, 0x6c, 0x2e, 0x70, 0x73, 0x65, 0x75, 0x64, 0x6f, 0x5f, 0x71,
  0x63, 0x6f, 0x6e, 0x73, 0x74, 0x38, 0x00, 0x00, 0x01, 0x00, 0x00, 0x00,
  0x0c, 0x00, 0x00, 0x00, 0x52, 0xf4, 0xff, 0xff, 0x00, 0x00, 0x00, 0x01,
  0x14, 0x00, 0x00, 0x00, 0x48, 0x01, 0x00, 0x00, 0x0c, 0x00, 0x00, 0x00,
  0x00, 0x00, 0x00, 0x09, 0x54, 0x01, 0x00, 0x00, 0x3c, 0xf4, 0xff, 0xff,
  0x08, 0x00, 0x00, 0x00, 0xcc, 0x00, 0x00, 0x00, 0x18, 0x00, 0x00, 0x00,
  0x00, 0x00, 0x00, 0x00, 0x00, 0x00, 0x00, 0x00, 0x00, 0x00, 0x00, 0x00,
  0x00, 0x00, 0x00, 0x00, 0x00, 0x00, 0x00, 0x00, 0x00, 0x00, 0x00, 0x00,
  0x00, 0x00, 0x00, 0x00, 0x00, 0x00, 0x00, 0x00, 0x00, 0x00, 0x00, 0x00,
  0x00, 0x00, 0x00, 0x00, 0x00, 0x00, 0x00, 0x00, 0x00, 0x00, 0x00, 0x00,
  0x00, 0x00, 0x00, 0x00, 0x00, 0x00, 0x00, 0x00, 0x00, 0x00, 0x00, 0x00,
  0x00, 0x00, 0x00, 0x00, 0x00, 0x00, 0x00, 0x00, 0x00, 0x00, 0x00, 0x00,
  0x00, 0x00, 0x00, 0x00, 0x00, 0x00, 0x00, 0x00, 0x00, 0x00, 0x00, 0x00,
  0x00, 0x00, 0x00, 0x00, 0x00, 0x00, 0x00, 0x00, 0x00, 0x00, 0x00, 0x00,
  0x00, 0x00, 0x00, 0x00, 0x00, 0x00, 0x00, 0x00, 0x00, 0x00, 0x00, 0x00,
  0x00, 0x00, 0x00, 0x00, 0x00, 0x00, 0x00, 0x00, 0x00, 0x00, 0x00, 0x00,
  0x00, 0x00, 0x00, 0x00, 0x00, 0x00, 0x00, 0x00, 0x00, 0x00, 0x00, 0x00,
  0x00, 0x00, 0x00, 0x00, 0x00, 0x00, 0x00, 0x00, 0x00, 0x00, 0x00, 0x00,
  0x00, 0x00, 0x00, 0x00, 0x00, 0x00, 0x00, 0x00, 0x00, 0x00, 0x00, 0x00,
  0x00, 0x00, 0x00, 0x00, 0x00, 0x00, 0x00, 0x00, 0x00, 0x00, 0x00, 0x00,
  0x00, 0x00, 0x00, 0x00, 0x00, 0x00, 0x00, 0x00, 0x00, 0x00, 0x00, 0x00,
  0x00, 0x00, 0x00, 0x00, 0x00, 0x00, 0x00, 0x00, 0x00, 0x00, 0x00, 0x00,
  0x00, 0x00, 0x00, 0x00, 0x18, 0x00, 0x00, 0x00, 0x32, 0x37, 0x92, 0x3c,
  0xe4, 0x01, 0xc3, 0x3c, 0x1f, 0x35, 0x82, 0x3c, 0x84, 0x50, 0x2a, 0x3c,
  0x96, 0x80, 0xa7, 0x3c, 0x0a, 0xe5, 0x82, 0x3c, 0x97, 0x8f, 0x68, 0x3c,
  0x4d, 0x90, 0x3a, 0x3c, 0x65, 0x7a, 0x5f, 0x3c, 0xe1, 0x36, 0xbb, 0x3c,
  0x27, 0x18, 0xce, 0x3c, 0x73, 0x89, 0x9a, 0x3c, 0x26, 0xbc, 0x35, 0x3c,
  0x0b, 0x81, 0x55, 0x3c, 0xbb, 0x73, 0x54, 0x3c, 0x92, 0x58, 0x6c, 0x3c,
  0xf6, 0xd4, 0x61, 0x3c, 0xce, 0x88, 0x98, 0x3c, 0x3c, 0xa6, 0x26, 0x3c,
  0xf8, 0x4e, 0x3f, 0x3c, 0x95, 0x0f, 0xaa, 0x3c, 0xb1, 0xc4, 0xb2, 0x3c,
  0xb5, 0x8e, 0xa9, 0x3c, 0xe6, 0x04, 0x6b, 0x3c, 0x12, 0x00, 0x00, 0x00,
  0x74, 0x66, 0x6c, 0x2e, 0x70, 0x73, 0x65, 0x75, 0x64, 0x6f, 0x5f, 0x71,
  0x63, 0x6f, 0x6e, 0x73, 0x74, 0x37, 0x00, 0x00, 0x04, 0x00, 0x00, 0x00,
  0x18, 0x00, 0x00, 0x00, 0x01, 0x00, 0x00, 0x00, 0x01, 0x00, 0x00, 0x00,
  0x0c, 0x00, 0x00, 0x00, 0xd2, 0xf5, 0xff, 0xff, 0x00, 0x00, 0x00, 0x01,
  0x14, 0x00, 0x00, 0x00, 0x44, 0x01, 0x00, 0x00, 0x0b, 0x00, 0x00, 0x00,
  0x00, 0x00, 0x00, 0x02, 0x50, 0x01, 0x00, 0x00, 0xbc, 0xf5, 0xff, 0xff,
  0x08, 0x00, 0x00, 0x00, 0xc8, 0x00, 0x00, 0x00, 0x18, 0x00, 0x00, 0x00,
  0x00, 0x00, 0x00, 0x00, 0x00, 0x00, 0x00, 0x00, 0x00, 0x00, 0x00, 0x00,
  0x00, 0x00, 0x00, 0x00, 0x00, 0x00, 0x00, 0x00, 0x00, 0x00, 0x00, 0x00,
  0x00, 0x00, 0x00, 0x00, 0x00, 0x00, 0x00, 0x00, 0x00, 0x00, 0x00, 0x00,
  0x00, 0x00, 0x00, 0x00, 0x00, 0x00, 0x00, 0x00, 0x00, 0x00, 0x00, 0x00,
  0x00, 0x00, 0x00, 0x00, 0x00, 0x00, 0x00, 0x00, 0x00, 0x00, 0x00, 0x00,
  0x00, 0x00, 0x00, 0x00, 0x00, 0x00, 0x00, 0x00, 0x00, 0x00, 0x00, 0x00,
  0x00, 0x00, 0x00, 0x00, 0x00, 0x00, 0x00, 0x00, 0x00, 0x00, 0x00, 0x00,
  0x00, 0x00, 0x00, 0x00, 0x00, 0x00, 0x00, 0x00, 0x00, 0x00, 0x00, 0x00,
  0x00, 0x00, 0x00, 0x00, 0x00, 0x00, 0x00, 0x00, 0x00, 0x00, 0x00, 0x00,
  0x00, 0x00, 0x00, 0x00, 0x00, 0x00, 0x00, 0x00, 0x00, 0x00, 0x00, 0x00,
  0x00, 0x00, 0x00, 0x00, 0x00, 0x00, 0x00, 0x00, 0x00, 0x00, 0x00, 0x00,
  0x00, 0x00, 0x00, 0x00, 0x00, 0x00, 0x00, 0x00, 0x00, 0x00, 0x00, 0x00,
  0x00, 0x00, 0x00, 0x00, 0x00, 0x00, 0x00, 0x00, 0x00, 0x00, 0x00, 0x00,
  0x00, 0x00, 0x00, 0x00, 0x00, 0x00, 0x00, 0x00, 0x00, 0x00, 0x00, 0x00,
  0x00, 0x00, 0x00, 0x00, 0x00, 0x00, 0x00, 0x00, 0x00, 0x00, 0x00, 0x00,
  0x00, 0x00, 0x00, 0x00, 0x00, 0x00, 0x00, 0x00, 0x00, 0x00, 0x00, 0x00,
  0x18, 0x00, 0x00, 0x00, 0x92, 0x45, 0x87, 0x3a, 0x5f, 0x69, 0xb4, 0x3a,
  0x74, 0xec, 0x70, 0x3a, 0x22, 0x91, 0x1d, 0x3a, 0x17, 0xf7, 0x9a, 0x3a,
  0xf4, 0x31, 0x72, 0x3a, 0x82, 0x27, 0x57, 0x3a, 0x92, 0x99, 0x2c, 0x3a,
  0x59, 0xc0, 0x4e, 0x3a, 0xae, 0x33, 0xad, 0x3a, 0x32, 0xab, 0xbe, 0x3a,
  0x61, 0xf8, 0x8e, 0x3a, 0xf1, 0x21, 0x28, 0x3a, 0x1c, 0x86, 0x45, 0x3a,
  0xf4, 0x8c, 0x44, 0x3a, 0xf7, 0xa7, 0x5a, 0x3a, 0xd1, 0xed, 0x50, 0x3a,
  0x1b, 0x1e, 0x8d, 0x3a, 0x14, 0x2d, 0x1a, 0x3a, 0x53, 0xfd, 0x30, 0x3a,
  0x0f, 0x55, 0x9d, 0x3a, 0x53, 0x63, 0xa5, 0x3a, 0xd5, 0xdd, 0x9c, 0x3a,
  0xb7, 0x6d, 0x59, 0x3a, 0x12, 0x00, 0x00, 0x00, 0x74, 0x66, 0x6c, 0x2e,
  0x70, 0x73, 0x65, 0x75, 0x64, 0x6f, 0x5f, 0x71, 0x63, 0x6f, 0x6e, 0x73,
  0x74, 0x36, 0x00, 0x00, 0x01, 0x00, 0x00, 0x00, 0x18, 0x00, 0x00, 0x00,
  0x00, 0x00, 0x16, 0x00, 0x1e, 0x00, 0x18, 0x00, 0x17, 0x00, 0x10, 0x00,
  0x0c, 0x00, 0x08, 0x00, 0x00, 0x00, 0x00, 0x00, 0x00, 0x00, 0x07, 0x00,
  0x16, 0x00, 0x00, 0x00, 0x00, 0x00, 0x00, 0x01, 0x28, 0x00, 0x00, 0x00,
  0x60, 0x01, 0x00, 0x00, 0x0a, 0x00, 0x00, 0x00, 0x00, 0x00, 0x00, 0x09,
  0x6c, 0x01, 0x00, 0x00, 0x00, 0x00, 0x12, 0x00, 0x10, 0x00, 0x00, 0x00,
  0x00, 0x00, 0x0c, 0x00, 0x08, 0x00, 0x00, 0x00, 0x00, 0x00, 0x04, 0x00,
  0x12, 0x00, 0x00, 0x00, 0x03, 0x00, 0x00, 0x00, 0x08, 0x00, 0x00, 0x00,
  0xcc, 0x00, 0x00, 0x00, 0x18, 0x00, 0x00, 0x00, 0x00, 0x00, 0x00, 0x00,
  0x00, 0x00, 0x00, 0x00, 0x00, 0x00, 0x00, 0x00, 0x00, 0x00, 0x00, 0x00,
  0x00, 0x00, 0x00, 0x00, 0x00, 0x00, 0x00, 0x00, 0x00, 0x00, 0x00, 0x00,
  0x00, 0x00, 0x00, 0x00, 0x00, 0x00, 0x00, 0x00, 0x00, 0x00, 0x00, 0x00,
  0x00, 0x00, 0x00, 0x00, 0x00, 0x00, 0x00, 0x00, 0x00, 0x00, 0x00, 0x00,
  0x00, 0x00, 0x00, 0x00, 0x00, 0x00, 0x00, 0x00, 0x00, 0x00, 0x00, 0x00,
  0x00, 0x00, 0x00, 0x00, 0x00, 0x00, 0x00, 0x00, 0x00, 0x00, 0x00, 0x00,
  0x00, 0x00, 0x00, 0x00, 0x00, 0x00, 0x00, 0x00, 0x00, 0x00, 0x00, 0x00,
  0x00, 0x00, 0x00, 0x00, 0x00, 0x00, 0x00, 0x00, 0x00, 0x00, 0x00, 0x00,
  0x00, 0x00, 0x00, 0x00, 0x00, 0x00, 0x00, 0x00, 0x00, 0x00, 0x00, 0x00,
  0x00, 0x00, 0x00, 0x00, 0x00, 0x00, 0x00, 0x00, 0x00, 0x00, 0x00, 0x00,
  0x00, 0x00, 0x00, 0x00, 0x00, 0x00, 0x00, 0x00, 0x00, 0x00, 0x00, 0x00,
  0x00, 0x00, 0x00, 0x00, 0x00, 0x00, 0x00, 0x00, 0x00, 0x00, 0x00, 0x00,
  0x00, 0x00, 0x00, 0x00, 0x00, 0x00, 0x00, 0x00, 0x00, 0x00, 0x00, 0x00,
  0x00, 0x00, 0x00, 0x00, 0x00, 0x00, 0x00, 0x00, 0x00, 0x00, 0x00, 0x00,
  0x00, 0x00, 0x00, 0x00, 0x00, 0x00, 0x00, 0x00, 0x00, 0x00, 0x00, 0x00,
  0x00, 0x00, 0x00, 0x00, 0x00, 0x00, 0x00, 0x00, 0x00, 0x00, 0x00, 0x00,
  0x18, 0x00, 0x00, 0x00, 0x63, 0x6b, 0xe7, 0x3a, 0xc2, 0x46, 0x12, 0x3b,
  0x03, 0x92, 0xcd, 0x3a, 0x46, 0x42, 0x05, 0x3b, 0x5f, 0x1e, 0x13, 0x3b,
  0x63, 0x1e, 0x8f, 0x3a, 0x06, 0x72, 0x03, 0x3b, 0x85, 0xe3, 0xc8, 0x3a,
  0x58, 0x16, 0xbb, 0x3a, 0xc3, 0xac, 0xd4, 0x3a, 0x38, 0xce, 0xfc, 0x3a,
  0x2d, 0x1a, 0xef, 0x3a, 0x22, 0x5e, 0xdf, 0x3a, 0xaa, 0xbf, 0x7c, 0x3a,
  0x2a, 0x4d, 0xe4, 0x3a, 0x28, 0xe4, 0xad, 0x3a, 0x0a, 0x43, 0xc5, 0x3a,
  0xd3, 0x1f, 0x58, 0x3a, 0x16, 0xc9, 0xa6, 0x3a, 0xd2, 0xb3, 0xcc, 0x3a,
  0xa1, 0x70, 0xc7, 0x3a, 0x53, 0x18, 0x91, 0x3a, 0x1f, 0xa1, 0x08, 0x3b,
  0xa2, 0xbd, 0xe1, 0x3a, 0x12, 0x00, 0x00, 0x00, 0x74, 0x66, 0x6c, 0x2e,
  0x70, 0x73, 0x65, 0x75, 0x64, 0x6f, 0x5f, 0x71, 0x63, 0x6f, 0x6e, 0x73,
  0x74, 0x35, 0x00, 0x00, 0x04, 0x00, 0x00, 0x00, 0x01, 0x00, 0x00, 0x00,
  0x01, 0x00, 0x00, 0x00, 0x05, 0x00, 0x00, 0x00, 0x18, 0x00, 0x00, 0x00,
  0xf2, 0xf8, 0xff, 0xff, 0x00, 0x00, 0x00, 0x01, 0x14, 0x00, 0x00, 0x00,
  0x44, 0x01, 0x00, 0x00, 0x09, 0x00, 0x00, 0x00, 0x00, 0x00, 0x00, 0x02,
  0x50, 0x01, 0x00, 0x00, 0xdc, 0xf8, 0xff, 0xff, 0x08, 0x00, 0x00, 0x00,
  0xc8, 0x00, 0x00, 0x00, 0x18, 0x00, 0x00, 0x00, 0x00, 0x00, 0x00, 0x00,
  0x00, 0x00, 0x00, 0x00, 0x00, 0x00, 0x00, 0x00, 0x00, 0x00, 0x00, 0x00,
  0x00, 0x00, 0x00, 0x00, 0x00, 0x00, 0x00, 0x00, 0x00, 0x00, 0x00, 0x00,
  0x00, 0x00, 0x00, 0x00, 0x00, 0x00, 0x00, 0x00, 0x00, 0x00, 0x00, 0x00,
  0x00, 0x00, 0x00, 0x00, 0x00, 0x00, 0x00, 0x00, 0x00, 0x00, 0x00, 0x00,
  0x00, 0x00, 0x00, 0x00, 0x00, 0x00, 0x00, 0x00, 0x00, 0x00, 0x00, 0x00,
  0x00, 0x00, 0x00, 0x00, 0x00, 0x00, 0x00, 0x00, 0x00, 0x00, 0x00, 0x00,
  0x00, 0x00, 0x00, 0x00, 0x00, 0x00, 0x00, 0x00, 0x00, 0x00, 0x00, 0x00,
  0x00, 0x00, 0x00, 0x00, 0x00, 0x00, 0x00, 0x00, 0x00, 0x00, 0x00, 0x00,
  0x00, 0x00, 0x00, 0x00, 0x00, 0x00, 0x00, 0x00, 0x00, 0x00, 0x00, 0x00,
  0x00, 0x00, 0x00, 0x00, 0x00, 0x00, 0x00, 0x00, 0x00, 0x00, 0x00, 0x00,
  0x00, 0x00, 0x00, 0x00, 0x00, 0x00, 0x00, 0x00, 0x00, 0x00, 0x00, 0x00,
  0x00, 0x00, 0x00, 0x00, 0x00, 0x00, 0x00, 0x00, 0x00, 0x00, 0x00, 0x00,
  0x00, 0x00, 0x00, 0x00, 0x00, 0x00, 0x00, 0x00, 0x00, 0x00, 0x00, 0x00,
  0x00, 0x00, 0x00, 0x00, 0x00, 0x00, 0x00, 0x00, 0x00, 0x00, 0x00, 0x00,
  0x00, 0x00, 0x00, 0x00, 0x00, 0x00, 0x00, 0x00, 0x00, 0x00, 0x00, 0x00,
  0x00, 0x00, 0x00, 0x00, 0x00, 0x00, 0x00, 0x00, 0x18, 0x00, 0x00, 0x00,
  0x43, 0x02, 0xd7, 0x38, 0x4c, 0xe7, 0x07, 0x39, 0x25, 0xfe, 0xbe, 0x38,
  0x42, 0x9e, 0xf7, 0x38, 0x9f, 0xaf, 0x08, 0x39, 0x40, 0xf8, 0x84, 0x38,
  0x9a, 0x3f, 0xf4, 0x38, 0xa4, 0xa4, 0xba, 0x38, 0x04, 0xd2, 0xad, 0x38,
  0xec, 0x97, 0xc5, 0x38, 0xdc, 0xe0, 0xea, 0x38, 0x95, 0x25, 0xde, 0x38,
  0x2e, 0x87, 0xcf, 0x38, 0x56, 0xd3, 0x6a, 0x38, 0xa5, 0x1c, 0xd4, 0x38,
  0x62, 0x8f, 0xa1, 0x38, 0x01, 0x46, 0xb7, 0x38, 0x5d, 0xcc, 0x48, 0x38,
  0x4f, 0xf5, 0x9a, 0x38, 0xb6, 0x2f, 0xbe, 0x38, 0x0d, 0x4c, 0xb9, 0x38,
  0x4f, 0xce, 0x86, 0x38, 0x94, 0xe1, 0xfd, 0x38, 0x99, 0xbb, 0xd1, 0x38,
  0x12, 0x00, 0x00, 0x00, 0x74, 0x66, 0x6c, 0x2e, 0x70, 0x73, 0x65, 0x75,
  0x64, 0x6f, 0x5f, 0x71, 0x63, 0x6f, 0x6e, 0x73, 0x74, 0x34, 0x00, 0x00,
  0x01, 0x00, 0x00, 0x00, 0x18, 0x00, 0x00, 0x00, 0x62, 0xfa, 0xff, 0xff,
  0x00, 0x00, 0x00, 0x01, 0x14, 0x00, 0x00, 0x00, 0xa8, 0x01, 0x00, 0x00,
  0x08, 0x00, 0x00, 0x00, 0x00, 0x00, 0x00, 0x09, 0xb4, 0x01, 0x00, 0x00,
  0x4c, 0xfa, 0xff, 0xff, 0x08, 0x00, 0x00, 0x00, 0x0c, 0x01, 0x00, 0x00,
  0x20, 0x00, 0x00, 0x00, 0x00, 0x00, 0x00, 0x00, 0x00, 0x00, 0x00, 0x00,
  0x00, 0x00, 0x00, 0x00, 0x00, 0x00, 0x00, 0x00, 0x00, 0x00, 0x00, 0x00,
  0x00, 0x00, 0x00, 0x00, 0x00, 0x00, 0x00, 0x00, 0x00, 0x00, 0x00, 0x00,
  0x00, 0x00, 0x00, 0x00, 0x00, 0x00, 0x00, 0x00, 0x00, 0x00, 0x00, 0x00,
  0x00, 0x00, 0x00, 0x00, 0x00, 0x00, 0x00, 0x00, 0x00, 0x00, 0x00, 0x00,
  0x00, 0x00, 0x00, 0x00, 0x00, 0x00, 0x00, 0x00, 0x00, 0x00, 0x00, 0x00,
  0x00, 0x00, 0x00, 0x00, 0x00, 0x00, 0x00, 0x00, 0x00, 0x00, 0x00, 0x00,
  0x00, 0x00, 0x00, 0x00, 0x00, 0x00, 0x00, 0x00, 0x00, 0x00, 0x00, 0x00,
  0x00, 0x00, 0x00, 0x00, 0x00, 0x00, 0x00, 0x00, 0x00, 0x00, 0x00, 0x00,
  0x00, 0x00, 0x00, 0x00, 0x00, 0x00, 0x00, 0x00, 0x00, 0x00, 0x00, 0x00,
  0x00, 0x00, 0x00, 0x00, 0x00, 0x00, 0x00, 0x00, 0x00, 0x00, 0x00, 0x00,
  0x00, 0x00, 0x00, 0x00, 0x00, 0x00, 0x00, 0x00, 0x00, 0x00, 0x00, 0x00,
  0x00, 0x00, 0x00, 0x00, 0x00, 0x00, 0x00, 0x00, 0x00, 0x00, 0x00, 0x00,
  0x00, 0x00, 0x00, 0x00, 0x00, 0x00, 0x00, 0x00, 0x00, 0x00, 0x00, 0x00,
  0x00, 0x00, 0x00, 0x00, 0x00, 0x00, 0x00, 0x00, 0x00, 0x00, 0x00, 0x00,
  0x00, 0x00, 0x00, 0x00, 0x00, 0x00, 0x00, 0x00, 0x00, 0x00, 0x00, 0x00,
  0x00, 0x00, 0x00, 0x00, 0x00, 0x00, 0x00, 0x00, 0x00, 0x00, 0x00, 0x00,
  0x00, 0x00, 0x00, 0x00, 0x00, 0x00, 0x00, 0x00, 0x00, 0x00, 0x00, 0x00,
  0x00, 0x00, 0x00, 0x00, 0x00, 0x00, 0x00, 0x00, 0x00, 0x00, 0x00, 0x00,
  0x00, 0x00, 0x00, 0x00, 0x00, 0x00, 0x00, 0x00, 0x00, 0x00, 0x00, 0x00,
  0x00, 0x00, 0x00, 0x00, 0x00, 0x00, 0x00, 0x00, 0x00, 0x00, 0x00, 0x00,
  0x00, 0x00, 0x00, 0x00, 0x00, 0x00, 0x00, 0x00, 0x00, 0x00, 0x00, 0x00,
  0x20, 0x00, 0x00, 0x00, 0x7b, 0xb9, 0x9a, 0x3c, 0x56, 0x19, 0x4f, 0x3c,
  0xa3, 0x63, 0x4a, 0x3c, 0xd6, 0x88, 0x69, 0x3c, 0x27, 0x4e, 0x9c, 0x3c,
  0xb4, 0x53, 0x3d, 0x3c, 0xd2, 0x87, 0x29, 0x3c, 0x1f, 0xe4, 0x05, 0x3c,
  0xed, 0x57, 0xce, 0x3c, 0x75, 0x27, 0x1f, 0x3d, 0x4b, 0x34, 0x7a, 0x3c,
  0x2f, 0xd0, 0x26, 0x3c, 0x8e, 0xc5, 0x88, 0x3c, 0xde, 0x3c, 0xaf, 0x3c,
  0x3f, 0x56, 0x67, 0x3c, 0xa0, 0x3c, 0x9c, 0x3c, 0xb3, 0x90, 0x47, 0x3c,
  0xf2, 0x00, 0x80, 0x3c, 0x14, 0x56, 0x21, 0x3c, 0x28, 0xc6, 0x43, 0x3c,
  0xcf, 0x51, 0x58, 0x3c, 0xb4, 0x5d, 0x6e, 0x3c, 0xd6, 0x5b, 0x7e, 0x3c,
  0xf3, 0xf2, 0x58, 0x3c, 0x2d, 0x0e, 0x72, 0x3c, 0xdf, 0xd5, 0x64, 0x3c,
  0x48, 0x06, 0x82, 0x3c, 0xcb, 0x51, 0x74, 0x3c, 0xd2, 0x7c, 0x6e, 0x3c,
  0x05, 0x95, 0x72, 0x3c, 0x9b, 0x26, 0x56, 0x3c, 0xee, 0xe9, 0x4d, 0x3c,
  0x12, 0x00, 0x00, 0x00, 0x74, 0x66, 0x6c, 0x2e, 0x70, 0x73, 0x65, 0x75,
  0x64, 0x6f, 0x5f, 0x71, 0x63, 0x6f, 0x6e, 0x73, 0x74, 0x33, 0x00, 0x00,
  0x04, 0x00, 0x00, 0x00, 0x20, 0x00, 0x00, 0x00, 0x01, 0x00, 0x00, 0x00,
  0x01, 0x00, 0x00, 0x00, 0x18, 0x00, 0x00, 0x00, 0x42, 0xfc, 0xff, 0xff,
  0x00, 0x00, 0x00, 0x01, 0x14, 0x00, 0x00, 0x00, 0xa4, 0x01, 0x00, 0x00,
  0x07, 0x00, 0x00, 0x00, 0x00, 0x00, 0x00, 0x02, 0xb0, 0x01, 0x00, 0x00,
  0x2c, 0xfc, 0xff, 0xff, 0x08, 0x00, 0x00, 0x00, 0x08, 0x01, 0x00, 0x00,
  0x20, 0x00, 0x00, 0x00, 0x00, 0x00, 0x00, 0x00, 0x00, 0x00, 0x00, 0x00,
  0x00, 0x00, 0x00, 0x00, 0x00, 0x00, 0x00, 0x00, 0x00, 0x00, 0x00, 0x00,
  0x00, 0x00, 0x00, 0x00, 0x00, 0x00, 0x00, 0x00, 0x00, 0x00, 0x00, 0x00,
  0x00, 0x00, 0x00, 0x00, 0x00, 0x00, 0x00, 0x00, 0x00, 0x00, 0x00, 0x00,
  0x00, 0x00, 0x00, 0x00, 0x00, 0x00, 0x00, 0x00, 0x00, 0x00, 0x00, 0x00,
  0x00, 0x00, 0x00, 0x00, 0x00, 0x00, 0x00, 0x00, 0x00, 0x00, 0x00, 0x00,
  0x00, 0x00, 0x00, 0x00, 0x00, 0x00, 0x00, 0x00, 0x00, 0x00, 0x00, 0x00,
  0x00, 0x00, 0x00, 0x00, 0x00, 0x00, 0x00, 0x00, 0x00, 0x00, 0x00, 0x00,
  0x00, 0x00, 0x00, 0x00, 0x00, 0x00, 0x00, 0x00, 0x00, 0x00, 0x00, 0x00,
  0x00, 0x00, 0x00, 0x00, 0x00, 0x00, 0x00, 0x00, 0x00, 0x00, 0x00, 0x00,
  0x00, 0x00, 0x00, 0x00, 0x00, 0x00, 0x00, 0x00, 0x00, 0x00, 0x00, 0x00,
  0x00, 0x00, 0x00, 0x00, 0x00, 0x00, 0x00, 0x00, 0x00, 0x00, 0x00, 0x00,
  0x00, 0x00, 0x00, 0x00, 0x00, 0x00, 0x00, 0x00, 0x00, 0x00, 0x00, 0x00,
  0x00, 0x00, 0x00, 0x00, 0x00, 0x00, 0x00, 0x00, 0x00, 0x00, 0x00, 0x00,
  0x00, 0x00, 0x00, 0x00, 0x00, 0x00, 0x00, 0x00, 0x00, 0x00, 0x00, 0x00,
  0x00, 0x00, 0x00, 0x00, 0x00, 0x00, 0x00, 0x00, 0x00, 0x00, 0x00, 0x00,
  0x00, 0x00, 0x00, 0x00, 0x00, 0x00, 0x00, 0x00, 0x00, 0x00, 0x00, 0x00,
  0x00, 0x00, 0x00, 0x00, 0x00, 0x00, 0x00, 0x00, 0x00, 0x00, 0x00, 0x00,
  0x00, 0x00, 0x00, 0x00, 0x00, 0x00, 0x00, 0x00, 0x00, 0x00, 0x00, 0x00,
  0x00, 0x00, 0x00, 0x00, 0x00, 0x00, 0x00, 0x00, 0x00, 0x00, 0x00, 0x00,
  0x00, 0x00, 0x00, 0x00, 0x00, 0x00, 0x00, 0x00, 0x00, 0x00, 0x00, 0x00,
  0x00, 0x00, 0x00, 0x00, 0x00, 0x00, 0x00, 0x00, 0x20, 0x00, 0x00, 0x00,
  0xa1, 0x6a, 0x2e, 0x3a, 0xec, 0x74, 0xe9, 0x39, 0xc5, 0x25, 0xe4, 0x39,
  0xdd, 0xa0, 0x03, 0x3a, 0xce, 0x32, 0x30, 0x3a, 0x40, 0x6c, 0xd5, 0x39,
  0x5f, 0x1b, 0xbf, 0x39, 0x7d, 0xee, 0x96, 0x39, 0xe5, 0x9a, 0x68, 0x3a,
  0xee, 0x68, 0xb3, 0x3a, 0x28, 0x06, 0x0d, 0x3a, 0x33, 0x0b, 0xbc, 0x39,
  0xc6, 0x2d, 0x1a, 0x3a, 0x5e, 0x8a, 0x45, 0x3a, 0xc5, 0x63, 0x02, 0x3a,
  0x0c, 0x1f, 0x30, 0x3a, 0xd3, 0xf6, 0xe0, 0x39, 0x7e, 0x4b, 0x10, 0x3a,
  0xa6, 0xde, 0xb5, 0x39, 0xc2, 0xb0, 0xdc, 0x39, 0xd0, 0xd9, 0xf3, 0x39,
  0x02, 0x5a, 0x06, 0x3a, 0x9b, 0x5d, 0x0f, 0x3a, 0x77, 0x8f, 0xf4, 0x39,
  0x58, 0x6e, 0x08, 0x3a, 0xd5, 0xfa, 0x00, 0x3a, 0xab, 0x92, 0x12, 0x3a,
  0x0a, 0xb5, 0x09, 0x3a, 0x8c, 0x6b, 0x06, 0x3a, 0x59, 0xba, 0x08, 0x3a,
  0xf3, 0x67, 0xf1, 0x39, 0xe6, 0x1e, 0xe8, 0x39, 0x12, 0x00, 0x00, 0x00,
  0x74, 0x66, 0x6c, 0x2e, 0x70, 0x73, 0x65, 0x75, 0x64, 0x6f, 0x5f, 0x71,
  0x63, 0x6f, 0x6e, 0x73, 0x74, 0x32, 0x00, 0x00, 0x01, 0x00, 0x00, 0x00,
  0x20, 0x00, 0x00, 0x00, 0x12, 0xfe, 0xff, 0xff, 0x00, 0x00, 0x00, 0x01,
  0x14, 0x00, 0x00, 0x00, 0x70, 0x00, 0x00, 0x00, 0x06, 0x00, 0x00, 0x00,
  0x00, 0x00, 0x00, 0x09, 0x7c, 0x00, 0x00, 0x00, 0xfc, 0xfd, 0xff, 0xff,
  0x08, 0x00, 0x00, 0x00, 0x3c, 0x00, 0x00, 0x00, 0x06, 0x00, 0x00, 0x00,
  0x00, 0x00, 0x00, 0x00, 0x00, 0x00, 0x00, 0x00, 0x00, 0x00, 0x00, 0x00,
  0x00, 0x00, 0x00, 0x00, 0x00, 0x00, 0x00, 0x00, 0x00, 0x00, 0x00, 0x00,
  0x00, 0x00, 0x00, 0x00, 0x00, 0x00, 0x00, 0x00, 0x00, 0x00, 0x00, 0x00,
  0x00, 0x00, 0x00, 0x00, 0x00, 0x00, 0x00, 0x00, 0x00, 0x00, 0x00, 0x00,
  0x00, 0x00, 0x00, 0x00, 0x06, 0x00, 0x00, 0x00, 0x05, 0x79, 0x98, 0x3b,
  0xa0, 0x95, 0x97, 0x3b, 0x63, 0x4e, 0x8a, 0x3b, 0x7b, 0xff, 0xbb, 0x3b,
  0xa4, 0xbc, 0xa2, 0x3b, 0xd2, 0x0b, 0x8b, 0x3b, 0x12, 0x00, 0x00, 0x00,
  0x74, 0x66, 0x6c, 0x2e, 0x70, 0x73, 0x65, 0x75, 0x64, 0x6f, 0x5f, 0x71,
  0x63, 0x6f, 0x6e, 0x73, 0x74, 0x31, 0x00, 0x00, 0x02, 0x00, 0x00, 0x00,
  0x06, 0x00, 0x00, 0x00, 0x20, 0x00, 0x00, 0x00, 0xb2, 0xfe, 0xff, 0xff,
  0x00, 0x00, 0x00, 0x01, 0x14, 0x00, 0x00, 0x00, 0x6c, 0x00, 0x00, 0x00,
  0x05, 0x00, 0x00, 0x00, 0x00, 0x00, 0x00, 0x02, 0x78, 0x00, 0x00, 0x00,
  0x9c, 0xfe, 0xff, 0xff, 0x08, 0x00, 0x00, 0x00, 0x38, 0x00, 0x00, 0x00,
  0x06, 0x00, 0x00, 0x00, 0x00, 0x00, 0x00, 0x00, 0x00, 0x00, 0x00, 0x00,
  0x00, 0x00, 0x00, 0x00, 0x00, 0x00, 0x00, 0x00, 0x00, 0x00, 0x00, 0x00,
  0x00, 0x00, 0x00, 0x00, 0x00, 0x00, 0x00, 0x00, 0x00, 0x00, 0x00, 0x00,
  0x00, 0x00, 0x00, 0x00, 0x00, 0x00, 0x00, 0x00, 0x00, 0x00, 0x00, 0x00,
  0x00, 0x00, 0x00, 0x00, 0x06, 0x00, 0x00, 0x00, 0xd0, 0x3a, 0xa7, 0x38,
  0x69, 0x41, 0xa6, 0x38, 0x2e, 0xb1, 0x97, 0x38, 0x7b, 0x31, 0xce, 0x38,
  0xc0, 0x7c, 0xb2, 0x38, 0xf2, 0x80, 0x98, 0x38, 0x11, 0x00, 0x00, 0x00,
  0x74, 0x66, 0x6c, 0x2e, 0x70, 0x73, 0x65, 0x75, 0x64, 0x6f, 0x5f, 0x71,
  0x63, 0x6f, 0x6e, 0x73, 0x74, 0x00, 0x00, 0x00, 0x01, 0x00, 0x00, 0x00,
  0x06, 0x00, 0x00, 0x00, 0x4a, 0xff, 0xff, 0xff, 0x00, 0x00, 0x00, 0x01,
  0x14, 0x00, 0x00, 0x00, 0x14, 0x00, 0x00, 0x00, 0x04, 0x00, 0x00, 0x00,
  0x00, 0x00, 0x00, 0x02, 0x1c, 0x00, 0x00, 0x00, 0x8c, 0xff, 0xff, 0xff,
  0x0f, 0x00, 0x00, 0x00, 0x61, 0x72, 0x69, 0x74, 0x68, 0x2e, 0x63, 0x6f,
  0x6e, 0x73, 0x74, 0x61, 0x6e, 0x74, 0x32, 0x00, 0x00, 0x00, 0x00, 0x00,
  0x82, 0xff, 0xff, 0xff, 0x00, 0x00, 0x00, 0x01, 0x14, 0x00, 0x00, 0x00,
  0x14, 0x00, 0x00, 0x00, 0x03, 0x00, 0x00, 0x00, 0x00, 0x00, 0x00, 0x02,
  0x1c, 0x00, 0x00, 0x00, 0xc4, 0xff, 0xff, 0xff, 0x0f, 0x00, 0x00, 0x00,
  0x61, 0x72, 0x69, 0x74, 0x68, 0x2e, 0x63, 0x6f, 0x6e, 0x73, 0x74, 0x61,
  0x6e, 0x74, 0x31, 0x00, 0x01, 0x00, 0x00, 0x00, 0x03, 0x00, 0x00, 0x00,
  0xbe, 0xff, 0xff, 0xff, 0x00, 0x00, 0x00, 0x01, 0x18, 0x00, 0x00, 0x00,
  0x18, 0x00, 0x00, 0x00, 0x02, 0x00, 0x00, 0x00, 0x00, 0x00, 0x00, 0x02,
  0x20, 0x00, 0x00, 0x00, 0x04, 0x00, 0x04, 0x00, 0x04, 0x00, 0x00, 0x00,
  0x0e, 0x00, 0x00, 0x00, 0x61, 0x72, 0x69, 0x74, 0x68, 0x2e, 0x63, 0x6f,
  0x6e, 0x73, 0x74, 0x61, 0x6e, 0x74, 0x00, 0x00, 0x01, 0x00, 0x00, 0x00,
  0x04, 0x00, 0x00, 0x00, 0x00, 0x00, 0x16, 0x00, 0x1c, 0x00, 0x18, 0x00,
  0x17, 0x00, 0x10, 0x00, 0x0c, 0x00, 0x08, 0x00, 0x00, 0x00, 0x00, 0x00,
  0x00, 0x00, 0x07, 0x00, 0x16, 0x00, 0x00, 0x00, 0x00, 0x00, 0x00, 0x01,
  0x20, 0x00, 0x00, 0x00, 0x3c, 0x00, 0x00, 0x00, 0x01, 0x00, 0x00, 0x00,
  0x00, 0x00, 0x00, 0x09, 0x3c, 0x00, 0x00, 0x00, 0x0c, 0x00, 0x0c, 0x00,
  0x00, 0x00, 0x00, 0x00, 0x08, 0x00, 0x04, 0x00, 0x0c, 0x00, 0x00, 0x00,
  0x08, 0x00, 0x00, 0x00, 0x10, 0x00, 0x00, 0x00, 0x01, 0x00, 0x00, 0x00,
  0x08, 0x00, 0x00, 0x00, 0x00, 0x00, 0x00, 0x00, 0x01, 0x00, 0x00, 0x00,
  0xc6, 0x79, 0x0b, 0x3e, 0x06, 0x00, 0x00, 0x00, 0x69, 0x6e, 0x70, 0x75,
  0x74, 0x73, 0x00, 0x00, 0x03, 0x00, 0x00, 0x00, 0x01, 0x00, 0x00, 0x00,
  0x80, 0x00, 0x00, 0x00, 0x06, 0x00, 0x00, 0x00, 0x07, 0x00, 0x00, 0x00,
  0x94, 0x00, 0x00, 0x00, 0x74, 0x00, 0x00, 0x00, 0x54, 0x00, 0x00, 0x00,
  0x40, 0x00, 0x00, 0x00, 0x2c, 0x00, 0x00, 0x00, 0x18, 0x00, 0x00, 0x00,
  0x04, 0x00, 0x00, 0x00, 0xb0, 0xff, 0xff, 0xff, 0x19, 0x00, 0x00, 0x00,
  0x02, 0x00, 0x00, 0x00, 0x00, 0x00, 0x00, 0x19, 0xc0, 0xff, 0xff, 0xff,
  0x09, 0x00, 0x00, 0x00, 0x04, 0x00, 0x00, 0x00, 0x00, 0x00, 0x00, 0x09,
  0xd0, 0xff, 0xff, 0xff, 0x28, 0x00, 0x00, 0x00, 0x02, 0x00, 0x00, 0x00,
  0x00, 0x00, 0x00, 0x28, 0xe0, 0xff, 0xff, 0xff, 0x01, 0x00, 0x00, 0x00,
  0x02, 0x00, 0x00, 0x00, 0x00, 0x00, 0x00, 0x01, 0xf0, 0xff, 0xff, 0xff,
  0x04, 0x00, 0x00, 0x00, 0x03, 0x00, 0x00, 0x00, 0x00, 0x00, 0x00, 0x04,
  0x0c, 0x00, 0x10, 0x00, 0x0f, 0x00, 0x00, 0x00, 0x08, 0x00, 0x04, 0x00,
  0x0c, 0x00, 0x00, 0x00, 0x03, 0x00, 0x00, 0x00, 0x03, 0x00, 0x00, 0x00,
  0x00, 0x00, 0x00, 0x03, 0x0c, 0x00, 0x0c, 0x00, 0x0b, 0x00, 0x00, 0x00,
  0x00, 0x00, 0x04, 0x00, 0x0c, 0x00, 0x00, 0x00, 0x16, 0x00, 0x00, 0x00,
  0x00, 0x00, 0x00, 0x16,
};
const unsigned int g_tinyml_har_model_len = 10288;

#endif  // TINYML_HAR_MODEL_DATA_H_
