#ifndef TINYML_HAR_MODEL_DATA_H_
#define TINYML_HAR_MODEL_DATA_H_

// TinyML HAR deployment model for Arduino evidence collection.
// Model: M4 session3+4 gravity/orientation 10-channel DS-CNN, INT8 PTQ live-test candidate.
// This is not claimed as a fully scientifically validated final model.
// Check the milestone report for remaining held-out validation failure modes.

#include <cstdint>

#if defined(ARDUINO_ARCH_AVR)
#include <avr/pgmspace.h>
#define TINYML_PROGMEM PROGMEM
#else
#define TINYML_PROGMEM
#endif

constexpr int kWindowSize = 128;
constexpr int kWindowStride = 64;
constexpr int kStride = kWindowStride;
constexpr int kChannelCount = 6;
constexpr int kClassCount = 6;
constexpr int kTensorArenaSize = 61440;
constexpr float kGyroDegToRad = 0.01745329252f;
constexpr float kInputScale = 0.14777413f;
constexpr int kInputZeroPoint = 11;
constexpr float kOutputScale = 0.00390625f;
constexpr int kOutputZeroPoint = -128;
const char* const kNormalizationSource = "UCI-HAR train + Arduino V2/V2.1 + old M3 raw replay validation + standardized sessions 3 and 4; standardized session 1 and live Serial logs excluded";

constexpr float kFeatureMean[kChannelCount] = {0.129321441f, -0.105080456f, 0.202021509f, 0.0311136506f, -0.00528732827f, 0.00574927917f};
constexpr float kFeatureStd[kChannelCount] = {0.821689963f, 0.443858445f, 0.396127731f, 0.609612763f, 0.374742836f, 0.343149483f};
const char* const kClassNames[kClassCount] = {"WALKING", "WALKING_UPSTAIRS", "WALKING_DOWNSTAIRS", "SITTING", "STANDING", "LAYING"};

alignas(8) const unsigned char g_tinyml_har_model[] TINYML_PROGMEM = {
  0x20, 0x00, 0x00, 0x00, 0x54, 0x46, 0x4c, 0x33, 0x00, 0x00, 0x00, 0x00,
  0x14, 0x00, 0x20, 0x00, 0x1c, 0x00, 0x18, 0x00, 0x14, 0x00, 0x10, 0x00,
  0x0c, 0x00, 0x00, 0x00, 0x08, 0x00, 0x04, 0x00, 0x14, 0x00, 0x00, 0x00,
  0x1c, 0x00, 0x00, 0x00, 0x1c, 0x00, 0x00, 0x00, 0x9c, 0x00, 0x00, 0x00,
  0xe8, 0x0a, 0x00, 0x00, 0xf8, 0x0a, 0x00, 0x00, 0x54, 0x27, 0x00, 0x00,
  0x03, 0x00, 0x00, 0x00, 0x00, 0x00, 0x00, 0x00, 0x03, 0x00, 0x00, 0x00,
  0x5c, 0x00, 0x00, 0x00, 0x2c, 0x00, 0x00, 0x00, 0x04, 0x00, 0x00, 0x00,
  0xb8, 0xff, 0xff, 0xff, 0x1e, 0x00, 0x00, 0x00, 0x04, 0x00, 0x00, 0x00,
  0x13, 0x00, 0x00, 0x00, 0x43, 0x4f, 0x4e, 0x56, 0x45, 0x52, 0x53, 0x49,
  0x4f, 0x4e, 0x5f, 0x4d, 0x45, 0x54, 0x41, 0x44, 0x41, 0x54, 0x41, 0x00,
  0xdc, 0xff, 0xff, 0xff, 0x1d, 0x00, 0x00, 0x00, 0x04, 0x00, 0x00, 0x00,
  0x13, 0x00, 0x00, 0x00, 0x6d, 0x69, 0x6e, 0x5f, 0x72, 0x75, 0x6e, 0x74,
  0x69, 0x6d, 0x65, 0x5f, 0x76, 0x65, 0x72, 0x73, 0x69, 0x6f, 0x6e, 0x00,
  0x08, 0x00, 0x0c, 0x00, 0x08, 0x00, 0x04, 0x00, 0x08, 0x00, 0x00, 0x00,
  0x1c, 0x00, 0x00, 0x00, 0x04, 0x00, 0x00, 0x00, 0x13, 0x00, 0x00, 0x00,
  0x6d, 0x69, 0x6e, 0x5f, 0x72, 0x75, 0x6e, 0x74, 0x69, 0x6d, 0x65, 0x5f,
  0x76, 0x65, 0x72, 0x73, 0x69, 0x6f, 0x6e, 0x00, 0x1f, 0x00, 0x00, 0x00,
  0x48, 0x0a, 0x00, 0x00, 0x40, 0x0a, 0x00, 0x00, 0x20, 0x0a, 0x00, 0x00,
  0x04, 0x0a, 0x00, 0x00, 0xf0, 0x09, 0x00, 0x00, 0xc8, 0x09, 0x00, 0x00,
  0xf8, 0x08, 0x00, 0x00, 0x68, 0x08, 0x00, 0x00, 0x58, 0x05, 0x00, 0x00,
  0xe8, 0x04, 0x00, 0x00, 0x60, 0x04, 0x00, 0x00, 0xf0, 0x03, 0x00, 0x00,
  0xc0, 0x02, 0x00, 0x00, 0x80, 0x02, 0x00, 0x00, 0x34, 0x02, 0x00, 0x00,
  0xf4, 0x01, 0x00, 0x00, 0x0c, 0x01, 0x00, 0x00, 0x04, 0x01, 0x00, 0x00,
  0xfc, 0x00, 0x00, 0x00, 0xf4, 0x00, 0x00, 0x00, 0xec, 0x00, 0x00, 0x00,
  0xe4, 0x00, 0x00, 0x00, 0xdc, 0x00, 0x00, 0x00, 0xd4, 0x00, 0x00, 0x00,
  0xcc, 0x00, 0x00, 0x00, 0xc4, 0x00, 0x00, 0x00, 0xbc, 0x00, 0x00, 0x00,
  0xb4, 0x00, 0x00, 0x00, 0x94, 0x00, 0x00, 0x00, 0x74, 0x00, 0x00, 0x00,
  0x04, 0x00, 0x00, 0x00, 0x96, 0xf5, 0xff, 0xff, 0x04, 0x00, 0x00, 0x00,
  0x60, 0x00, 0x00, 0x00, 0x0c, 0x00, 0x00, 0x00, 0x08, 0x00, 0x0e, 0x00,
  0x08, 0x00, 0x04, 0x00, 0x08, 0x00, 0x00, 0x00, 0x10, 0x00, 0x00, 0x00,
  0x28, 0x00, 0x00, 0x00, 0x00, 0x00, 0x06, 0x00, 0x08, 0x00, 0x04, 0x00,
  0x06, 0x00, 0x00, 0x00, 0x04, 0x00, 0x00, 0x00, 0x01, 0x00, 0x00, 0x00,
  0xeb, 0x03, 0x00, 0x00, 0x0c, 0x00, 0x18, 0x00, 0x14, 0x00, 0x10, 0x00,
  0x0c, 0x00, 0x04, 0x00, 0x0c, 0x00, 0x00, 0x00, 0x85, 0x19, 0x69, 0xb1,
  0x00, 0xb9, 0x20, 0xbf, 0x03, 0x00, 0x00, 0x00, 0x02, 0x00, 0x00, 0x00,
  0x04, 0x00, 0x00, 0x00, 0x06, 0x00, 0x00, 0x00, 0x32, 0x2e, 0x31, 0x38,
  0x2e, 0x30, 0x00, 0x00, 0x02, 0xf6, 0xff, 0xff, 0x04, 0x00, 0x00, 0x00,
  0x10, 0x00, 0x00, 0x00, 0x00, 0x00, 0x00, 0x00, 0x00, 0x00, 0x00, 0x00,
  0x00, 0x00, 0x00, 0x00, 0x00, 0x00, 0x00, 0x00, 0x1e, 0xf6, 0xff, 0xff,
  0x04, 0x00, 0x00, 0x00, 0x10, 0x00, 0x00, 0x00, 0x31, 0x2e, 0x31, 0x34,
  0x2e, 0x30, 0x00, 0x00, 0x00, 0x00, 0x00, 0x00, 0x00, 0x00, 0x00, 0x00,
  0x00, 0xdb, 0xff, 0xff, 0x04, 0xdb, 0xff, 0xff, 0x08, 0xdb, 0xff, 0xff,
  0x0c, 0xdb, 0xff, 0xff, 0x10, 0xdb, 0xff, 0xff, 0x14, 0xdb, 0xff, 0xff,
  0x18, 0xdb, 0xff, 0xff, 0x1c, 0xdb, 0xff, 0xff, 0x20, 0xdb, 0xff, 0xff,
  0x24, 0xdb, 0xff, 0xff, 0x28, 0xdb, 0xff, 0xff, 0x66, 0xf6, 0xff, 0xff,
  0x04, 0x00, 0x00, 0x00, 0xd8, 0x00, 0x00, 0x00, 0x1d, 0x7f, 0x15, 0xfc,
  0xce, 0x39, 0x36, 0x1f, 0x15, 0x12, 0x12, 0x16, 0x48, 0x67, 0x0b, 0x29,
  0x10, 0xf8, 0x48, 0xea, 0xb5, 0xbd, 0xf7, 0xf1, 0xf6, 0x81, 0x52, 0xc5,
  0x9e, 0x0d, 0x65, 0x9e, 0x90, 0x27, 0x4a, 0xda, 0x08, 0x21, 0xf5, 0x56,
  0x78, 0x34, 0x58, 0x7f, 0xea, 0xf4, 0x85, 0xf3, 0x36, 0x79, 0xce, 0xee,
  0x54, 0x89, 0x5b, 0x3a, 0xff, 0xe2, 0x08, 0xe2, 0xc0, 0x3b, 0x99, 0xf1,
  0x5f, 0xc9, 0x7f, 0x4c, 0x02, 0x99, 0x4c, 0x00, 0x94, 0x81, 0x21, 0xbf,
  0xbb, 0xde, 0x53, 0x0b, 0x79, 0x02, 0x5f, 0x0b, 0xc4, 0x01, 0x01, 0xd3,
  0xe9, 0xf9, 0x6e, 0x94, 0xc5, 0xe5, 0x8d, 0x3b, 0x72, 0x0c, 0x7f, 0x57,
  0x05, 0x2e, 0xe9, 0x1d, 0xf9, 0xff, 0xeb, 0x7b, 0x7f, 0x03, 0xd1, 0xd4,
  0xfc, 0x26, 0x10, 0x09, 0x38, 0x34, 0x60, 0x5d, 0x11, 0x94, 0x02, 0x54,
  0x5e, 0xe7, 0xcf, 0x8d, 0x76, 0x15, 0x15, 0xf7, 0xd8, 0x21, 0xd2, 0xf4,
  0x95, 0xd6, 0x7f, 0x4a, 0x78, 0xdb, 0x0d, 0xb5, 0x08, 0xa4, 0xb7, 0x5f,
  0x3e, 0x29, 0xc9, 0x05, 0xc5, 0x59, 0x57, 0x98, 0xb8, 0x69, 0xfe, 0x09,
  0xf1, 0x81, 0x41, 0x2d, 0xf7, 0x1e, 0xf4, 0x05, 0x7d, 0x8e, 0x43, 0xb8,
  0xdd, 0x94, 0xe1, 0x81, 0xd5, 0xce, 0xea, 0x26, 0x9a, 0x2d, 0xd7, 0xc0,
  0xc5, 0x56, 0x81, 0x31, 0xa4, 0xb7, 0x65, 0x27, 0xa4, 0x27, 0x51, 0x70,
  0x11, 0xc5, 0xcf, 0xf0, 0xc8, 0xa5, 0x9f, 0x72, 0xbc, 0xf9, 0xef, 0xce,
  0xc5, 0x74, 0x81, 0xf8, 0x92, 0x8a, 0x3b, 0xa7, 0x4a, 0xf7, 0xff, 0xff,
  0x04, 0x00, 0x00, 0x00, 0x30, 0x00, 0x00, 0x00, 0x19, 0x03, 0x00, 0x00,
  0x07, 0x01, 0x00, 0x00, 0x40, 0xfe, 0xff, 0xff, 0xc8, 0xff, 0xff, 0xff,
  0x40, 0xff, 0xff, 0xff, 0xe1, 0xfd, 0xff, 0xff, 0xd3, 0xff, 0xff, 0xff,
  0x49, 0x00, 0x00, 0x00, 0x8a, 0x00, 0x00, 0x00, 0x2e, 0xfe, 0xff, 0xff,
  0x77, 0xff, 0xff, 0xff, 0xf4, 0xff, 0xff, 0xff, 0x86, 0xf7, 0xff, 0xff,
  0x04, 0x00, 0x00, 0x00, 0x3c, 0x00, 0x00, 0x00, 0x7f, 0x24, 0x7f, 0x14,
  0x53, 0xe2, 0xdc, 0x13, 0x81, 0x8a, 0xb1, 0xeb, 0x1f, 0x38, 0x2b, 0x81,
  0x35, 0x7f, 0x81, 0x2b, 0x5c, 0x6d, 0x0f, 0x78, 0x20, 0x74, 0x30, 0xc0,
  0x0d, 0x01, 0xad, 0x15, 0x75, 0x43, 0xa5, 0x81, 0xa0, 0x81, 0xb2, 0xee,
  0xaa, 0x65, 0xdb, 0x7f, 0x32, 0x7f, 0x81, 0xac, 0xa4, 0x82, 0x65, 0x73,
  0x7f, 0xf4, 0x2d, 0x62, 0x10, 0x7a, 0x0b, 0xa5, 0xce, 0xf7, 0xff, 0xff,
  0x04, 0x00, 0x00, 0x00, 0x30, 0x00, 0x00, 0x00, 0x00, 0x00, 0x00, 0x00,
  0x00, 0x00, 0x00, 0x00, 0x00, 0x00, 0x00, 0x00, 0x00, 0x00, 0x00, 0x00,
  0x00, 0x00, 0x00, 0x00, 0x00, 0x00, 0x00, 0x00, 0x00, 0x00, 0x00, 0x00,
  0x00, 0x00, 0x00, 0x00, 0x00, 0x00, 0x00, 0x00, 0x00, 0x00, 0x00, 0x00,
  0x00, 0x00, 0x00, 0x00, 0x00, 0x00, 0x00, 0x00, 0x0a, 0xf8, 0xff, 0xff,
  0x04, 0x00, 0x00, 0x00, 0x20, 0x01, 0x00, 0x00, 0x7f, 0x99, 0x42, 0xf4,
  0xbd, 0x9a, 0xe7, 0x61, 0xbd, 0xe7, 0xef, 0xdb, 0xcd, 0x3c, 0x77, 0x98,
  0x50, 0xb6, 0x7f, 0xc6, 0xe3, 0xd6, 0x71, 0x4f, 0xe3, 0x2b, 0x97, 0xac,
  0x7f, 0x19, 0x13, 0xed, 0x4b, 0x03, 0x48, 0xd5, 0xc2, 0x7a, 0x08, 0x52,
  0xf8, 0x3b, 0x46, 0x63, 0xa7, 0x01, 0xd9, 0x7f, 0xdc, 0x3c, 0xce, 0x56,
  0x46, 0xfa, 0xd7, 0xab, 0x19, 0xd6, 0x7f, 0x95, 0x7f, 0xad, 0x15, 0x1e,
  0xc4, 0x25, 0x2f, 0xfa, 0x0d, 0x38, 0xf6, 0xbf, 0x81, 0x7d, 0xd9, 0x1f,
  0x01, 0x2d, 0x2e, 0xe5, 0xbf, 0xef, 0x36, 0xfd, 0x32, 0xe8, 0x81, 0x33,
  0x94, 0x7c, 0xa5, 0x0f, 0x31, 0x68, 0x53, 0xbc, 0x81, 0xeb, 0x74, 0x02,
  0x2a, 0xda, 0x14, 0x4d, 0x17, 0xb3, 0x1b, 0x0c, 0x9c, 0xf5, 0x81, 0x0f,
  0xf1, 0xa0, 0xca, 0xa7, 0x94, 0x39, 0x23, 0x7e, 0xbb, 0x7f, 0x23, 0xc7,
  0x8f, 0x3e, 0xe2, 0x46, 0xa1, 0xee, 0x52, 0x92, 0x21, 0x72, 0x16, 0x8a,
  0xf9, 0x7f, 0x2e, 0x63, 0x44, 0x52, 0x32, 0xe5, 0xb5, 0x62, 0x7f, 0xf3,
  0xe7, 0x59, 0xd0, 0xfd, 0xe2, 0x58, 0x8a, 0x20, 0x7f, 0x11, 0xe4, 0x6a,
  0x08, 0x5a, 0x19, 0xcb, 0xeb, 0x5c, 0xa6, 0xf6, 0x5a, 0x00, 0xe0, 0xf4,
  0xd4, 0x01, 0xb8, 0x81, 0x1e, 0xc6, 0xb2, 0x45, 0xd0, 0xd8, 0xbf, 0xdf,
  0x7f, 0x63, 0x7d, 0xdf, 0x67, 0x44, 0x09, 0x15, 0xca, 0xce, 0x81, 0xe2,
  0xa5, 0x15, 0xbd, 0x47, 0xb5, 0xd6, 0xe0, 0x48, 0x23, 0x7f, 0xb0, 0xb7,
  0xd3, 0xd5, 0xca, 0x6f, 0xcd, 0xc2, 0xd6, 0xe1, 0x97, 0xf3, 0xd2, 0x81,
  0xd3, 0x01, 0xfc, 0xda, 0x23, 0xcd, 0x1b, 0x2b, 0xff, 0x94, 0xe9, 0x1a,
  0x7f, 0x8f, 0x17, 0x5f, 0xb9, 0x61, 0x8e, 0x09, 0xa8, 0x5c, 0x68, 0xb6,
  0x18, 0x23, 0xd8, 0x7f, 0xd1, 0x6f, 0xda, 0x1c, 0x7f, 0xd3, 0x05, 0xcb,
  0x3e, 0x27, 0xe7, 0x3a, 0xaf, 0xf6, 0xf0, 0xcb, 0xdb, 0x15, 0x4d, 0x0d,
  0xda, 0x05, 0x44, 0xee, 0x7f, 0x56, 0xf7, 0x78, 0xc5, 0x42, 0xf5, 0xef,
  0x81, 0x4e, 0xee, 0xa3, 0x8d, 0x5f, 0xb1, 0x62, 0x36, 0xf9, 0xff, 0xff,
  0x04, 0x00, 0x00, 0x00, 0x60, 0x00, 0x00, 0x00, 0x57, 0xfe, 0xff, 0xff,
  0x97, 0x06, 0x00, 0x00, 0xf1, 0xff, 0xff, 0xff, 0xd6, 0x02, 0x00, 0x00,
  0xee, 0x01, 0x00, 0x00, 0x5a, 0xff, 0xff, 0xff, 0xaa, 0x02, 0x00, 0x00,
  0x4a, 0xfe, 0xff, 0xff, 0x96, 0xff, 0xff, 0xff, 0x37, 0x04, 0x00, 0x00,
  0x5c, 0x00, 0x00, 0x00, 0xf0, 0xfd, 0xff, 0xff, 0x87, 0xf9, 0xff, 0xff,
  0x8f, 0xfd, 0xff, 0xff, 0x0a, 0x02, 0x00, 0x00, 0xcd, 0x00, 0x00, 0x00,
  0x1c, 0x00, 0x00, 0x00, 0xe4, 0xfe, 0xff, 0xff, 0x2d, 0x02, 0x00, 0x00,
  0x4b, 0xfb, 0xff, 0xff, 0xd0, 0xf9, 0xff, 0xff, 0xe0, 0xfc, 0xff, 0xff,
  0x5b, 0x00, 0x00, 0x00, 0x3a, 0x01, 0x00, 0x00, 0xa2, 0xf9, 0xff, 0xff,
  0x04, 0x00, 0x00, 0x00, 0x78, 0x00, 0x00, 0x00, 0xca, 0x52, 0x05, 0x4a,
  0x7d, 0x7d, 0x7d, 0x7f, 0xb0, 0x47, 0x08, 0x77, 0x4a, 0x33, 0x77, 0x81,
  0xb3, 0xad, 0x93, 0x22, 0xbd, 0x32, 0x7f, 0x39, 0x81, 0x2b, 0x7a, 0x1a,
  0x7b, 0x58, 0x76, 0x29, 0x8c, 0xe7, 0x5c, 0x78, 0x17, 0x23, 0x7f, 0xe4,
  0xcc, 0x81, 0x9f, 0x58, 0xc6, 0x7f, 0x17, 0x9e, 0xf5, 0x0d, 0xcd, 0x2c,
  0x7f, 0x5e, 0x7e, 0x24, 0xe0, 0x7f, 0x7c, 0x53, 0x7f, 0x5f, 0x70, 0xa0,
  0xa7, 0xfd, 0x92, 0x54, 0xa0, 0x4a, 0x2d, 0x32, 0x9a, 0x7f, 0x81, 0x7f,
  0x57, 0x7f, 0x3e, 0x41, 0xfd, 0x1b, 0x1f, 0x7f, 0xf7, 0x57, 0x55, 0xf9,
  0x95, 0xfe, 0xac, 0x56, 0xcc, 0x37, 0x4e, 0x7f, 0xd5, 0x45, 0xa0, 0x5f,
  0x51, 0x6b, 0x7f, 0xbd, 0x81, 0x07, 0x7f, 0x71, 0x78, 0x7f, 0x5b, 0xa3,
  0x81, 0xda, 0x81, 0x7f, 0x81, 0x5c, 0x7b, 0x78, 0x26, 0xfa, 0xff, 0xff,
  0x04, 0x00, 0x00, 0x00, 0x60, 0x00, 0x00, 0x00, 0x00, 0x00, 0x00, 0x00,
  0x00, 0x00, 0x00, 0x00, 0x00, 0x00, 0x00, 0x00, 0x00, 0x00, 0x00, 0x00,
  0x00, 0x00, 0x00, 0x00, 0x00, 0x00, 0x00, 0x00, 0x00, 0x00, 0x00, 0x00,
  0x00, 0x00, 0x00, 0x00, 0x00, 0x00, 0x00, 0x00, 0x00, 0x00, 0x00, 0x00,
  0x00, 0x00, 0x00, 0x00, 0x00, 0x00, 0x00, 0x00, 0x00, 0x00, 0x00, 0x00,
  0x00, 0x00, 0x00, 0x00, 0x00, 0x00, 0x00, 0x00, 0x00, 0x00, 0x00, 0x00,
  0x00, 0x00, 0x00, 0x00, 0x00, 0x00, 0x00, 0x00, 0x00, 0x00, 0x00, 0x00,
  0x00, 0x00, 0x00, 0x00, 0x00, 0x00, 0x00, 0x00, 0x00, 0x00, 0x00, 0x00,
  0x00, 0x00, 0x00, 0x00, 0x00, 0x00, 0x00, 0x00, 0x92, 0xfa, 0xff, 0xff,
  0x04, 0x00, 0x00, 0x00, 0x00, 0x03, 0x00, 0x00, 0x61, 0xde, 0x44, 0xe4,
  0xb1, 0xbd, 0x2e, 0x2a, 0x52, 0x48, 0xb7, 0xfc, 0xcd, 0x3e, 0x58, 0x7f,
  0x07, 0x04, 0xc9, 0xd6, 0xd3, 0xe9, 0x1e, 0xd4, 0xd8, 0x0f, 0x19, 0x14,
  0x09, 0x2d, 0xd0, 0x0e, 0xf1, 0x13, 0x07, 0x08, 0xb2, 0x4a, 0xe7, 0x81,
  0xc8, 0xdc, 0x9e, 0xe1, 0x52, 0x4e, 0x27, 0x11, 0x15, 0x2f, 0xed, 0x87,
  0x81, 0x35, 0xf2, 0x40, 0xaa, 0x48, 0xa1, 0xaa, 0xae, 0xbd, 0x59, 0xfa,
  0x2b, 0x2d, 0x24, 0xc5, 0x8e, 0xfd, 0xac, 0x75, 0x84, 0xea, 0x18, 0xfa,
  0x34, 0x39, 0x7f, 0xc2, 0x17, 0x18, 0x50, 0xf5, 0xb8, 0xc4, 0x01, 0x51,
  0x41, 0x83, 0x0a, 0x18, 0x00, 0x5a, 0x5f, 0x2c, 0x5b, 0x62, 0x13, 0xd4,
  0xd2, 0xf5, 0x90, 0x47, 0xdc, 0x47, 0x5f, 0x2f, 0xef, 0x57, 0xd3, 0xf8,
  0xcb, 0x40, 0xce, 0x2f, 0x7f, 0x2b, 0x1d, 0xe2, 0xb2, 0x2f, 0x0f, 0xfc,
  0x20, 0xe1, 0xc5, 0x1a, 0x29, 0x3e, 0x41, 0x20, 0xfb, 0xfa, 0xf3, 0x06,
  0x36, 0x1c, 0x0e, 0x7f, 0xda, 0xf3, 0xd6, 0x3e, 0x9d, 0xb5, 0xc5, 0x09,
  0x81, 0xc6, 0x1a, 0xfc, 0x68, 0xb4, 0x1c, 0xbf, 0xd8, 0x6e, 0xb4, 0xea,
  0xb6, 0x1b, 0xa2, 0x09, 0xc8, 0xdb, 0x38, 0x8c, 0x84, 0x49, 0xb6, 0x7f,
  0xaf, 0x9d, 0xb7, 0xc9, 0x0a, 0xd3, 0xd0, 0x52, 0x3c, 0xa1, 0x31, 0x18,
  0xb2, 0xfb, 0x77, 0x3c, 0xed, 0x38, 0x84, 0x5d, 0xe0, 0xc6, 0x0f, 0xfb,
  0xd2, 0xf5, 0x7f, 0xb7, 0x5b, 0xc7, 0x34, 0xd0, 0xf6, 0x02, 0xbc, 0xe1,
  0xd9, 0xc0, 0xc7, 0x33, 0xee, 0x2c, 0x66, 0xbf, 0x99, 0xf2, 0x13, 0xe6,
  0x0c, 0xe3, 0x7f, 0xda, 0x6e, 0x88, 0xfc, 0xf1, 0xaa, 0xe7, 0x3d, 0x23,
  0x09, 0xb9, 0x12, 0x21, 0xc2, 0x0d, 0x57, 0xf7, 0x15, 0xfc, 0xce, 0x32,
  0xd7, 0xd0, 0xeb, 0x11, 0xfc, 0x5a, 0x38, 0xd3, 0xfb, 0xdd, 0xbf, 0xfa,
  0x93, 0x13, 0x81, 0x3f, 0x66, 0x34, 0x20, 0xc7, 0x3b, 0x69, 0x17, 0x22,
  0xc3, 0xd1, 0x0b, 0xcb, 0xfb, 0xd9, 0x7f, 0xe1, 0xba, 0x06, 0xd8, 0xd9,
  0xd5, 0x27, 0x05, 0x55, 0xb4, 0xe4, 0xc3, 0x1b, 0x0d, 0x85, 0x81, 0x04,
  0xf0, 0x46, 0xf9, 0xf0, 0x0c, 0x27, 0xf4, 0xaa, 0xe2, 0x67, 0x74, 0xde,
  0xd5, 0xd6, 0x0e, 0xe5, 0xe6, 0xaf, 0xc3, 0x3a, 0xfb, 0x2d, 0x84, 0x13,
  0xa8, 0xef, 0x47, 0x3a, 0x35, 0xf2, 0x7f, 0x9c, 0x85, 0x07, 0x2f, 0x88,
  0xdd, 0x2c, 0xaf, 0x6b, 0x01, 0x03, 0x77, 0x45, 0xe8, 0x06, 0x9c, 0x34,
  0xed, 0x18, 0x43, 0xfe, 0x1f, 0x48, 0x06, 0xa7, 0xb7, 0x50, 0xa8, 0xb3,
  0xa9, 0x8b, 0xd6, 0x03, 0xb2, 0xeb, 0x3e, 0x81, 0xc3, 0xd0, 0xb6, 0x24,
  0x75, 0x3c, 0x53, 0xae, 0x32, 0xe5, 0xc9, 0x11, 0x36, 0x81, 0x2e, 0x32,
  0x62, 0xfa, 0xf4, 0xee, 0xf8, 0x9d, 0x17, 0x23, 0x54, 0xb1, 0xf6, 0x81,
  0xdc, 0xe1, 0xc6, 0x27, 0xdd, 0x43, 0x48, 0x51, 0xfa, 0xe1, 0xeb, 0x63,
  0xec, 0x1a, 0x55, 0xe4, 0xb9, 0x82, 0xdb, 0x3f, 0x02, 0x32, 0xf9, 0x81,
  0xde, 0x25, 0xe1, 0xfa, 0xe9, 0xd2, 0x17, 0x6a, 0xef, 0x0e, 0xcf, 0xfd,
  0xe9, 0x33, 0xfa, 0xed, 0x3f, 0x3a, 0x31, 0x2c, 0xfc, 0x1c, 0xcb, 0xe5,
  0xe8, 0xe4, 0x9e, 0x07, 0xfa, 0x14, 0xe2, 0xe7, 0x2c, 0x30, 0xa4, 0x0c,
  0x04, 0xf3, 0x1f, 0xd3, 0xbd, 0x81, 0xa3, 0x1c, 0x3f, 0x46, 0xc2, 0x2d,
  0x33, 0xbe, 0xde, 0xf9, 0xb0, 0x19, 0x0c, 0xe8, 0x41, 0x0d, 0xfa, 0xef,
  0xc9, 0xb3, 0x7f, 0xfe, 0x9d, 0xc6, 0x10, 0xf3, 0x08, 0x39, 0x10, 0x21,
  0xfc, 0x89, 0xbd, 0x23, 0xd4, 0x44, 0x47, 0xe5, 0xe9, 0xf2, 0x81, 0xeb,
  0xeb, 0x51, 0x2e, 0x27, 0x32, 0xeb, 0xe2, 0xd2, 0x01, 0xd7, 0x2f, 0x26,
  0x22, 0xf5, 0x17, 0xf1, 0x56, 0x05, 0x38, 0x17, 0x51, 0xce, 0x09, 0x0f,
  0x7f, 0xf3, 0xe2, 0x15, 0x00, 0xde, 0x04, 0x07, 0xed, 0xbe, 0xf8, 0x1e,
  0x1d, 0x2b, 0xfb, 0x20, 0x0f, 0x28, 0x7f, 0xf0, 0xf3, 0xec, 0x56, 0xc9,
  0xe0, 0xd0, 0xda, 0x55, 0x28, 0x02, 0x40, 0xfd, 0xd4, 0x08, 0x50, 0xbe,
  0xd6, 0x7e, 0xbc, 0x03, 0xd7, 0x30, 0xb5, 0x46, 0x38, 0x1e, 0x81, 0xb9,
  0xe9, 0x3d, 0x57, 0x89, 0xf3, 0x45, 0x20, 0xcd, 0x13, 0xfd, 0xb3, 0xe0,
  0x5a, 0x41, 0x9b, 0x44, 0x81, 0xe1, 0xa4, 0x0e, 0x1e, 0x2a, 0xb4, 0xdb,
  0xb3, 0xad, 0xda, 0xaf, 0x5d, 0xec, 0x14, 0x46, 0x12, 0xae, 0x3d, 0xb0,
  0x54, 0xbb, 0x0d, 0xe4, 0xea, 0xf5, 0xda, 0x7f, 0x60, 0xed, 0xfd, 0x71,
  0x15, 0x03, 0x0c, 0x18, 0x54, 0xca, 0x05, 0xe5, 0x1c, 0xb7, 0x44, 0xd9,
  0xc1, 0xe6, 0x81, 0x2e, 0xa9, 0x4e, 0x4a, 0x56, 0xc5, 0xd4, 0xea, 0xbe,
  0xa7, 0xe2, 0x78, 0xd5, 0xed, 0x24, 0xda, 0xc5, 0x3a, 0x05, 0xc2, 0x44,
  0x81, 0x9d, 0xdc, 0x28, 0xed, 0x3e, 0x4b, 0xed, 0x1f, 0xf9, 0xe0, 0x6a,
  0x0e, 0x02, 0x68, 0xef, 0x9a, 0xb7, 0xb0, 0x0b, 0x0d, 0xed, 0xf0, 0xe4,
  0xd8, 0x5b, 0xeb, 0x7f, 0xc2, 0xd3, 0x01, 0xd9, 0xaa, 0x55, 0xcb, 0xfc,
  0x0d, 0xcf, 0xd3, 0xfb, 0x22, 0x0b, 0x30, 0x38, 0x55, 0x2a, 0xfc, 0x83,
  0xe1, 0xde, 0xb8, 0x3f, 0xc9, 0xfb, 0x61, 0x7f, 0x4c, 0x79, 0xc5, 0xd5,
  0xa7, 0x14, 0x50, 0xd9, 0x37, 0xee, 0xe1, 0xc5, 0x0d, 0x85, 0xcc, 0xeb,
  0x4b, 0xa7, 0x19, 0x0a, 0x2f, 0xa1, 0x16, 0x47, 0x49, 0xd5, 0xf1, 0x49,
  0x7f, 0x1f, 0x45, 0xc9, 0x92, 0xfa, 0xa6, 0xf9, 0x0e, 0xc9, 0x5b, 0xde,
  0xaa, 0x3b, 0x8f, 0x16, 0xbb, 0x18, 0xf9, 0x5f, 0x09, 0x1e, 0xc7, 0x9f,
  0x9b, 0x01, 0x7f, 0xcb, 0x63, 0x4b, 0xac, 0xca, 0x9e, 0xfd, 0xff, 0xff,
  0x04, 0x00, 0x00, 0x00, 0x80, 0x00, 0x00, 0x00, 0xaa, 0x0a, 0x00, 0x00,
  0x86, 0xf8, 0xff, 0xff, 0xf7, 0x09, 0x00, 0x00, 0x69, 0xfa, 0xff, 0xff,
  0x83, 0xfd, 0xff, 0xff, 0x79, 0xfa, 0xff, 0xff, 0x85, 0x06, 0x00, 0x00,
  0x64, 0xfd, 0xff, 0xff, 0x4a, 0x01, 0x00, 0x00, 0x0f, 0x00, 0x00, 0x00,
  0xb1, 0xfe, 0xff, 0xff, 0xb9, 0xff, 0xff, 0xff, 0x20, 0x02, 0x00, 0x00,
  0xea, 0xf7, 0xff, 0xff, 0x0e, 0xfd, 0xff, 0xff, 0xa4, 0xfe, 0xff, 0xff,
  0xfe, 0x0b, 0x00, 0x00, 0x16, 0x00, 0x00, 0x00, 0x25, 0x0c, 0x00, 0x00,
  0xd8, 0xfd, 0xff, 0xff, 0x6b, 0x08, 0x00, 0x00, 0xb4, 0xff, 0xff, 0xff,
  0x84, 0xf5, 0xff, 0xff, 0x76, 0x04, 0x00, 0x00, 0x80, 0xfe, 0xff, 0xff,
  0x6c, 0x04, 0x00, 0x00, 0x94, 0x04, 0x00, 0x00, 0xc3, 0x0c, 0x00, 0x00,
  0x80, 0x00, 0x00, 0x00, 0xe8, 0x00, 0x00, 0x00, 0x73, 0x0a, 0x00, 0x00,
  0xc0, 0x05, 0x00, 0x00, 0x2a, 0xfe, 0xff, 0xff, 0x04, 0x00, 0x00, 0x00,
  0xc0, 0x00, 0x00, 0x00, 0x31, 0x5e, 0xb4, 0x59, 0xd3, 0xdf, 0x14, 0x1e,
  0x6d, 0x65, 0x33, 0xfb, 0x12, 0x6e, 0x64, 0xfc, 0x90, 0xc7, 0x81, 0x97,
  0xa4, 0xd4, 0x24, 0xdd, 0x0f, 0xb4, 0xab, 0xcd, 0x43, 0xd4, 0xb0, 0xe3,
  0xec, 0x53, 0xad, 0xfe, 0x5e, 0xe9, 0xc4, 0x00, 0xda, 0xb2, 0x42, 0xc9,
  0x26, 0xd3, 0xd6, 0xa3, 0xfd, 0x31, 0x99, 0x2a, 0xba, 0xc3, 0x3b, 0x4a,
  0x5f, 0x23, 0x40, 0x81, 0x3e, 0x3e, 0x0e, 0x4a, 0x02, 0xfb, 0xed, 0x22,
  0xd0, 0x39, 0xe6, 0x06, 0x29, 0x63, 0xa5, 0xcf, 0xcb, 0xcf, 0x96, 0x4a,
  0x15, 0x03, 0x96, 0xad, 0xb1, 0x6a, 0x25, 0x0e, 0xe2, 0x32, 0x05, 0xa8,
  0xb5, 0x02, 0x7f, 0xf2, 0x07, 0xe1, 0xf7, 0xe6, 0x60, 0x34, 0x0e, 0x1b,
  0xb9, 0xf0, 0x56, 0x3d, 0xcb, 0x28, 0x3b, 0xde, 0x1d, 0xfd, 0x39, 0x04,
  0x50, 0xb1, 0xb4, 0xc2, 0xca, 0xe1, 0xd3, 0x37, 0xaf, 0x29, 0x81, 0xc6,
  0x6f, 0xc3, 0x7b, 0x85, 0x33, 0xd6, 0xf4, 0xef, 0x81, 0x25, 0x2c, 0xbc,
  0x6e, 0x05, 0xa3, 0x92, 0x72, 0xbb, 0x67, 0x94, 0xf3, 0x85, 0x9b, 0x81,
  0x91, 0x8d, 0xa2, 0x2f, 0x77, 0xb4, 0xe6, 0xf6, 0xa6, 0x14, 0xd6, 0x12,
  0xcb, 0xf2, 0xc2, 0x56, 0xd6, 0x95, 0x95, 0x37, 0xde, 0xc5, 0x37, 0x76,
  0xd1, 0x81, 0x4f, 0x4e, 0x1c, 0xc6, 0xcf, 0x0b, 0x63, 0xb7, 0x3e, 0x4e,
  0xf8, 0xa4, 0x42, 0x13, 0xf6, 0xfe, 0xff, 0xff, 0x04, 0x00, 0x00, 0x00,
  0x18, 0x00, 0x00, 0x00, 0xa2, 0xff, 0xff, 0xff, 0xdf, 0xfe, 0xff, 0xff,
  0x43, 0x02, 0x00, 0x00, 0x2a, 0x02, 0x00, 0x00, 0xde, 0xff, 0xff, 0xff,
  0xb1, 0xfe, 0xff, 0xff, 0x1a, 0xff, 0xff, 0xff, 0x04, 0x00, 0x00, 0x00,
  0x04, 0x00, 0x00, 0x00, 0x01, 0x00, 0x00, 0x00, 0x2a, 0xff, 0xff, 0xff,
  0x04, 0x00, 0x00, 0x00, 0x0c, 0x00, 0x00, 0x00, 0x01, 0x00, 0x00, 0x00,
  0x40, 0x00, 0x00, 0x00, 0x20, 0x00, 0x00, 0x00, 0x42, 0xff, 0xff, 0xff,
  0x04, 0x00, 0x00, 0x00, 0x10, 0x00, 0x00, 0x00, 0x01, 0x00, 0x00, 0x00,
  0x01, 0x00, 0x00, 0x00, 0x80, 0x00, 0x00, 0x00, 0x06, 0x00, 0x00, 0x00,
  0x24, 0xe4, 0xff, 0xff, 0x28, 0xe4, 0xff, 0xff, 0x0f, 0x00, 0x00, 0x00,
  0x4d, 0x4c, 0x49, 0x52, 0x20, 0x43, 0x6f, 0x6e, 0x76, 0x65, 0x72, 0x74,
  0x65, 0x64, 0x2e, 0x00, 0x01, 0x00, 0x00, 0x00, 0x14, 0x00, 0x00, 0x00,
  0x00, 0x00, 0x0e, 0x00, 0x18, 0x00, 0x14, 0x00, 0x10, 0x00, 0x0c, 0x00,
  0x08, 0x00, 0x04, 0x00, 0x0e, 0x00, 0x00, 0x00, 0x14, 0x00, 0x00, 0x00,
  0x1c, 0x00, 0x00, 0x00, 0x0c, 0x03, 0x00, 0x00, 0x10, 0x03, 0x00, 0x00,
  0x14, 0x03, 0x00, 0x00, 0x04, 0x00, 0x00, 0x00, 0x6d, 0x61, 0x69, 0x6e,
  0x00, 0x00, 0x00, 0x00, 0x0b, 0x00, 0x00, 0x00, 0xd0, 0x02, 0x00, 0x00,
  0x74, 0x02, 0x00, 0x00, 0x14, 0x02, 0x00, 0x00, 0xc0, 0x01, 0x00, 0x00,
  0x6c, 0x01, 0x00, 0x00, 0x18, 0x01, 0x00, 0x00, 0xd0, 0x00, 0x00, 0x00,
  0xac, 0x00, 0x00, 0x00, 0x78, 0x00, 0x00, 0x00, 0x40, 0x00, 0x00, 0x00,
  0x04, 0x00, 0x00, 0x00, 0xbe, 0xfe, 0xff, 0xff, 0x1c, 0x00, 0x00, 0x00,
  0x00, 0x00, 0x00, 0x09, 0x1c, 0x00, 0x00, 0x00, 0x20, 0x00, 0x00, 0x00,
  0x06, 0x00, 0x00, 0x00, 0x00, 0x00, 0x06, 0x00, 0x08, 0x00, 0x04, 0x00,
  0x06, 0x00, 0x00, 0x00, 0x00, 0x00, 0x80, 0x3f, 0x01, 0x00, 0x00, 0x00,
  0x1a, 0x00, 0x00, 0x00, 0x01, 0x00, 0x00, 0x00, 0x19, 0x00, 0x00, 0x00,
  0xfa, 0xfd, 0xff, 0xff, 0x14, 0x00, 0x00, 0x00, 0x00, 0x00, 0x00, 0x08,
  0x10, 0x00, 0x00, 0x00, 0x14, 0x00, 0x00, 0x00, 0x05, 0x00, 0x00, 0x00,
  0xfc, 0xe4, 0xff, 0xff, 0x01, 0x00, 0x00, 0x00, 0x19, 0x00, 0x00, 0x00,
  0x03, 0x00, 0x00, 0x00, 0x18, 0x00, 0x00, 0x00, 0x05, 0x00, 0x00, 0x00,
  0x04, 0x00, 0x00, 0x00, 0x2e, 0xfe, 0xff, 0xff, 0x14, 0x00, 0x00, 0x00,
  0x00, 0x00, 0x00, 0x1b, 0x10, 0x00, 0x00, 0x00, 0x14, 0x00, 0x00, 0x00,
  0x04, 0x00, 0x00, 0x00, 0x30, 0xe5, 0xff, 0xff, 0x01, 0x00, 0x00, 0x00,
  0x18, 0x00, 0x00, 0x00, 0x02, 0x00, 0x00, 0x00, 0x17, 0x00, 0x00, 0x00,
  0x03, 0x00, 0x00, 0x00, 0x02, 0xfe, 0xff, 0xff, 0x08, 0x00, 0x00, 0x00,
  0x0c, 0x00, 0x00, 0x00, 0x01, 0x00, 0x00, 0x00, 0x17, 0x00, 0x00, 0x00,
  0x02, 0x00, 0x00, 0x00, 0x16, 0x00, 0x00, 0x00, 0x02, 0x00, 0x00, 0x00,
  0x7e, 0xfe, 0xff, 0xff, 0x14, 0x00, 0x00, 0x00, 0x00, 0x00, 0x00, 0x01,
  0x20, 0x00, 0x00, 0x00, 0x24, 0x00, 0x00, 0x00, 0x01, 0x00, 0x00, 0x00,
  0x1c, 0xff, 0xff, 0xff, 0x00, 0x00, 0x00, 0x01, 0x01, 0x00, 0x00, 0x00,
  0x01, 0x00, 0x00, 0x00, 0x00, 0x00, 0x00, 0x01, 0x01, 0x00, 0x00, 0x00,
  0x16, 0x00, 0x00, 0x00, 0x03, 0x00, 0x00, 0x00, 0x15, 0x00, 0x00, 0x00,
  0x07, 0x00, 0x00, 0x00, 0x06, 0x00, 0x00, 0x00, 0xc2, 0xfe, 0xff, 0xff,
  0x14, 0x00, 0x00, 0x00, 0x00, 0x00, 0x00, 0x02, 0x1c, 0x00, 0x00, 0x00,
  0x20, 0x00, 0x00, 0x00, 0x02, 0x00, 0x00, 0x00, 0x10, 0xff, 0xff, 0xff,
  0x01, 0x00, 0x00, 0x00, 0x01, 0x00, 0x00, 0x00, 0x01, 0x00, 0x00, 0x00,
  0x01, 0x00, 0x00, 0x00, 0x15, 0x00, 0x00, 0x00, 0x03, 0x00, 0x00, 0x00,
  0x14, 0x00, 0x00, 0x00, 0x09, 0x00, 0x00, 0x00, 0x08, 0x00, 0x00, 0x00,
  0x00, 0x00, 0x0e, 0x00, 0x1a, 0x00, 0x14, 0x00, 0x10, 0x00, 0x0c, 0x00,
  0x0b, 0x00, 0x04, 0x00, 0x0e, 0x00, 0x00, 0x00, 0x24, 0x00, 0x00, 0x00,
  0x00, 0x00, 0x00, 0x05, 0x34, 0x00, 0x00, 0x00, 0x38, 0x00, 0x00, 0x00,
  0x03, 0x00, 0x00, 0x00, 0x00, 0x00, 0x0e, 0x00, 0x18, 0x00, 0x17, 0x00,
  0x10, 0x00, 0x0c, 0x00, 0x08, 0x00, 0x04, 0x00, 0x0e, 0x00, 0x00, 0x00,
  0x01, 0x00, 0x00, 0x00, 0x02, 0x00, 0x00, 0x00, 0x01, 0x00, 0x00, 0x00,
  0x02, 0x00, 0x00, 0x00, 0x00, 0x00, 0x00, 0x01, 0x01, 0x00, 0x00, 0x00,
  0x14, 0x00, 0x00, 0x00, 0x01, 0x00, 0x00, 0x00, 0x13, 0x00, 0x00, 0x00,
  0x62, 0xff, 0xff, 0xff, 0x20, 0x00, 0x00, 0x00, 0x00, 0x00, 0x00, 0x01,
  0x2c, 0x00, 0x00, 0x00, 0x30, 0x00, 0x00, 0x00, 0x01, 0x00, 0x00, 0x00,
  0x0c, 0x00, 0x14, 0x00, 0x13, 0x00, 0x0c, 0x00, 0x08, 0x00, 0x07, 0x00,
  0x0c, 0x00, 0x00, 0x00, 0x00, 0x00, 0x00, 0x01, 0x01, 0x00, 0x00, 0x00,
  0x01, 0x00, 0x00, 0x00, 0x00, 0x00, 0x00, 0x01, 0x01, 0x00, 0x00, 0x00,
  0x13, 0x00, 0x00, 0x00, 0x03, 0x00, 0x00, 0x00, 0x12, 0x00, 0x00, 0x00,
  0x0b, 0x00, 0x00, 0x00, 0x0a, 0x00, 0x00, 0x00, 0xb2, 0xff, 0xff, 0xff,
  0x20, 0x00, 0x00, 0x00, 0x00, 0x00, 0x00, 0x02, 0x28, 0x00, 0x00, 0x00,
  0x2c, 0x00, 0x00, 0x00, 0x02, 0x00, 0x00, 0x00, 0x0c, 0x00, 0x10, 0x00,
  0x00, 0x00, 0x0c, 0x00, 0x08, 0x00, 0x04, 0x00, 0x0c, 0x00, 0x00, 0x00,
  0x01, 0x00, 0x00, 0x00, 0x01, 0x00, 0x00, 0x00, 0x01, 0x00, 0x00, 0x00,
  0x01, 0x00, 0x00, 0x00, 0x12, 0x00, 0x00, 0x00, 0x03, 0x00, 0x00, 0x00,
  0x11, 0x00, 0x00, 0x00, 0x0d, 0x00, 0x00, 0x00, 0x0c, 0x00, 0x00, 0x00,
  0x00, 0x00, 0x0e, 0x00, 0x18, 0x00, 0x14, 0x00, 0x10, 0x00, 0x0c, 0x00,
  0x0b, 0x00, 0x04, 0x00, 0x0e, 0x00, 0x00, 0x00, 0x20, 0x00, 0x00, 0x00,
  0x00, 0x00, 0x00, 0x01, 0x28, 0x00, 0x00, 0x00, 0x2c, 0x00, 0x00, 0x00,
  0x01, 0x00, 0x00, 0x00, 0x0c, 0x00, 0x10, 0x00, 0x00, 0x00, 0x0c, 0x00,
  0x08, 0x00, 0x07, 0x00, 0x0c, 0x00, 0x00, 0x00, 0x00, 0x00, 0x00, 0x01,
  0x01, 0x00, 0x00, 0x00, 0x01, 0x00, 0x00, 0x00, 0x01, 0x00, 0x00, 0x00,
  0x11, 0x00, 0x00, 0x00, 0x03, 0x00, 0x00, 0x00, 0x10, 0x00, 0x00, 0x00,
  0x0f, 0x00, 0x00, 0x00, 0x0e, 0x00, 0x00, 0x00, 0x00, 0x00, 0x0a, 0x00,
  0x0c, 0x00, 0x00, 0x00, 0x08, 0x00, 0x04, 0x00, 0x0a, 0x00, 0x00, 0x00,
  0x08, 0x00, 0x00, 0x00, 0x0c, 0x00, 0x00, 0x00, 0x01, 0x00, 0x00, 0x00,
  0x10, 0x00, 0x00, 0x00, 0x02, 0x00, 0x00, 0x00, 0x00, 0x00, 0x00, 0x00,
  0x01, 0x00, 0x00, 0x00, 0x01, 0x00, 0x00, 0x00, 0x1a, 0x00, 0x00, 0x00,
  0x01, 0x00, 0x00, 0x00, 0x00, 0x00, 0x00, 0x00, 0x1b, 0x00, 0x00, 0x00,
  0xb8, 0x18, 0x00, 0x00, 0x5c, 0x18, 0x00, 0x00, 0x1c, 0x18, 0x00, 0x00,
  0xe0, 0x17, 0x00, 0x00, 0x44, 0x17, 0x00, 0x00, 0xa0, 0x16, 0x00, 0x00,
  0xcc, 0x14, 0x00, 0x00, 0xe8, 0x12, 0x00, 0x00, 0x74, 0x11, 0x00, 0x00,
  0xd8, 0x0f, 0x00, 0x00, 0x4c, 0x0e, 0x00, 0x00, 0xc8, 0x0c, 0x00, 0x00,
  0xe4, 0x0b, 0x00, 0x00, 0xec, 0x0a, 0x00, 0x00, 0x04, 0x0a, 0x00, 0x00,
  0x10, 0x09, 0x00, 0x00, 0x84, 0x08, 0x00, 0x00, 0x18, 0x07, 0x00, 0x00,
  0x84, 0x06, 0x00, 0x00, 0x20, 0x05, 0x00, 0x00, 0x9c, 0x04, 0x00, 0x00,
  0x08, 0x04, 0x00, 0x00, 0xa4, 0x02, 0x00, 0x00, 0x70, 0x01, 0x00, 0x00,
  0xf4, 0x00, 0x00, 0x00, 0x60, 0x00, 0x00, 0x00, 0x04, 0x00, 0x00, 0x00,
  0xca, 0xe7, 0xff, 0xff, 0x00, 0x00, 0x00, 0x01, 0x14, 0x00, 0x00, 0x00,
  0x30, 0x00, 0x00, 0x00, 0x1b, 0x00, 0x00, 0x00, 0x00, 0x00, 0x00, 0x09,
  0x34, 0x00, 0x00, 0x00, 0xb4, 0xe7, 0xff, 0xff, 0x08, 0x00, 0x00, 0x00,
  0x10, 0x00, 0x00, 0x00, 0x01, 0x00, 0x00, 0x00, 0x80, 0xff, 0xff, 0xff,
  0xff, 0xff, 0xff, 0xff, 0x01, 0x00, 0x00, 0x00, 0x00, 0x00, 0x80, 0x3b,
  0x08, 0x00, 0x00, 0x00, 0x49, 0x64, 0x65, 0x6e, 0x74, 0x69, 0x74, 0x79,
  0x00, 0x00, 0x00, 0x00, 0x02, 0x00, 0x00, 0x00, 0x01, 0x00, 0x00, 0x00,
  0x06, 0x00, 0x00, 0x00, 0x22, 0xe8, 0xff, 0xff, 0x00, 0x00, 0x00, 0x01,
  0x14, 0x00, 0x00, 0x00, 0x30, 0x00, 0x00, 0x00, 0x1a, 0x00, 0x00, 0x00,
  0x00, 0x00, 0x00, 0x09, 0x6c, 0x00, 0x00, 0x00, 0x0c, 0xe8, 0xff, 0xff,
  0x08, 0x00, 0x00, 0x00, 0x10, 0x00, 0x00, 0x00, 0x01, 0x00, 0x00, 0x00,
  0x09, 0x00, 0x00, 0x00, 0x00, 0x00, 0x00, 0x00, 0x01, 0x00, 0x00, 0x00,
  0xcf, 0x56, 0xe5, 0x3d, 0x40, 0x00, 0x00, 0x00, 0x74, 0x69, 0x6e, 0x79,
  0x5f, 0x64, 0x73, 0x5f, 0x63, 0x6e, 0x6e, 0x5f, 0x31, 0x2f, 0x61, 0x63,
  0x74, 0x69, 0x76, 0x69, 0x74, 0x79, 0x5f, 0x31, 0x2f, 0x4d, 0x61, 0x74,
  0x4d, 0x75, 0x6c, 0x3b, 0x74, 0x69, 0x6e, 0x79, 0x5f, 0x64, 0x73, 0x5f,
  0x63, 0x6e, 0x6e, 0x5f, 0x31, 0x2f, 0x61, 0x63, 0x74, 0x69, 0x76, 0x69,
  0x74, 0x79, 0x5f, 0x31, 0x2f, 0x42, 0x69, 0x61, 0x73, 0x41, 0x64, 0x64,
  0x00, 0x00, 0x00, 0x00, 0x02, 0x00, 0x00, 0x00, 0x01, 0x00, 0x00, 0x00,
  0x06, 0x00, 0x00, 0x00, 0xb2, 0xe8, 0xff, 0xff, 0x00, 0x00, 0x00, 0x01,
  0x14, 0x00, 0x00, 0x00, 0x34, 0x00, 0x00, 0x00, 0x19, 0x00, 0x00, 0x00,
  0x00, 0x00, 0x00, 0x09, 0x54, 0x00, 0x00, 0x00, 0x9c, 0xe8, 0xff, 0xff,
  0x08, 0x00, 0x00, 0x00, 0x14, 0x00, 0x00, 0x00, 0x01, 0x00, 0x00, 0x00,
  0x80, 0xff, 0xff, 0xff, 0xff, 0xff, 0xff, 0xff, 0x00, 0x00, 0x00, 0x00,
  0x01, 0x00, 0x00, 0x00, 0x35, 0xe4, 0xa2, 0x3c, 0x24, 0x00, 0x00, 0x00,
  0x74, 0x69, 0x6e, 0x79, 0x5f, 0x64, 0x73, 0x5f, 0x63, 0x6e, 0x6e, 0x5f,
  0x31, 0x2f, 0x67, 0x6c, 0x6f, 0x62, 0x61, 0x6c, 0x5f, 0x61, 0x76, 0x67,
  0x5f, 0x70, 0x6f, 0x6f, 0x6c, 0x5f, 0x31, 0x2f, 0x4d, 0x65, 0x61, 0x6e,
  0x00, 0x00, 0x00, 0x00, 0x02, 0x00, 0x00, 0x00, 0x01, 0x00, 0x00, 0x00,
  0x20, 0x00, 0x00, 0x00, 0x2a, 0xe9, 0xff, 0xff, 0x00, 0x00, 0x00, 0x01,
  0x14, 0x00, 0x00, 0x00, 0x30, 0x00, 0x00, 0x00, 0x18, 0x00, 0x00, 0x00,
  0x00, 0x00, 0x00, 0x09, 0x08, 0x01, 0x00, 0x00, 0x14, 0xe9, 0xff, 0xff,
  0x08, 0x00, 0x00, 0x00, 0x10, 0x00, 0x00, 0x00, 0x01, 0x00, 0x00, 0x00,
  0x80, 0xff, 0xff, 0xff, 0xff, 0xff, 0xff, 0xff, 0x01, 0x00, 0x00, 0x00,
  0xe2, 0x18, 0x93, 0x3d, 0xdc, 0x00, 0x00, 0x00, 0x74, 0x69, 0x6e, 0x79,
  0x5f, 0x64, 0x73, 0x5f, 0x63, 0x6e, 0x6e, 0x5f, 0x31, 0x2f, 0x64, 0x73,
  0x5f, 0x72, 0x65, 0x6c, 0x75, 0x5f, 0x32, 0x5f, 0x31, 0x2f, 0x52, 0x65,
  0x6c, 0x75, 0x3b, 0x74, 0x69, 0x6e, 0x79, 0x5f, 0x64, 0x73, 0x5f, 0x63,
  0x6e, 0x6e, 0x5f, 0x31, 0x2f, 0x64, 0x73, 0x5f, 0x62, 0x6e, 0x5f, 0x32,
  0x5f, 0x31, 0x2f, 0x62, 0x61, 0x74, 0x63, 0x68, 0x6e, 0x6f, 0x72, 0x6d,
  0x2f, 0x61, 0x64, 0x64, 0x5f, 0x31, 0x3b, 0x74, 0x69, 0x6e, 0x79, 0x5f,
  0x64, 0x73, 0x5f, 0x63, 0x6e, 0x6e, 0x5f, 0x31, 0x2f, 0x64, 0x73, 0x5f,
  0x63, 0x6f, 0x6e, 0x76, 0x5f, 0x32, 0x5f, 0x31, 0x2f, 0x53, 0x71, 0x75,
  0x65, 0x65, 0x7a, 0x65, 0x3b, 0x74, 0x69, 0x6e, 0x79, 0x5f, 0x64, 0x73,
  0x5f, 0x63, 0x6e, 0x6e, 0x5f, 0x31, 0x2f, 0x64, 0x73, 0x5f, 0x62, 0x6e,
  0x5f, 0x32, 0x5f, 0x31, 0x2f, 0x62, 0x61, 0x74, 0x63, 0x68, 0x6e, 0x6f,
  0x72, 0x6d, 0x2f, 0x6d, 0x75, 0x6c, 0x5f, 0x31, 0x3b, 0x74, 0x69, 0x6e,
  0x79, 0x5f, 0x64, 0x73, 0x5f, 0x63, 0x6e, 0x6e, 0x5f, 0x31, 0x2f, 0x64,
  0x73, 0x5f, 0x62, 0x6e, 0x5f, 0x32, 0x5f, 0x31, 0x2f, 0x62, 0x61, 0x74,
  0x63, 0x68, 0x6e, 0x6f, 0x72, 0x6d, 0x2f, 0x6d, 0x75, 0x6c, 0x3b, 0x74,
  0x69, 0x6e, 0x79, 0x5f, 0x64, 0x73, 0x5f, 0x63, 0x6e, 0x6e, 0x5f, 0x31,
  0x2f, 0x64, 0x73, 0x5f, 0x62, 0x6e, 0x5f, 0x32, 0x5f, 0x31, 0x2f, 0x62,
  0x61, 0x74, 0x63, 0x68, 0x6e, 0x6f, 0x72, 0x6d, 0x2f, 0x73, 0x75, 0x62,
  0x00, 0x00, 0x00, 0x00, 0x03, 0x00, 0x00, 0x00, 0x01, 0x00, 0x00, 0x00,
  0x40, 0x00, 0x00, 0x00, 0x20, 0x00, 0x00, 0x00, 0x5a, 0xea, 0xff, 0xff,
  0x00, 0x00, 0x00, 0x01, 0x14, 0x00, 0x00, 0x00, 0x34, 0x00, 0x00, 0x00,
  0x17, 0x00, 0x00, 0x00, 0x00, 0x00, 0x00, 0x09, 0x34, 0x01, 0x00, 0x00,
  0x44, 0xea, 0xff, 0xff, 0x08, 0x00, 0x00, 0x00, 0x14, 0x00, 0x00, 0x00,
  0x01, 0x00, 0x00, 0x00, 0x80, 0xff, 0xff, 0xff, 0xff, 0xff, 0xff, 0xff,
  0x00, 0x00, 0x00, 0x00, 0x01, 0x00, 0x00, 0x00, 0xe2, 0x18, 0x93, 0x3d,
  0x07, 0x01, 0x00, 0x00, 0x74, 0x69, 0x6e, 0x79, 0x5f, 0x64, 0x73, 0x5f,
  0x63, 0x6e, 0x6e, 0x5f, 0x31, 0x2f, 0x64, 0x73, 0x5f, 0x72, 0x65, 0x6c,
  0x75, 0x5f, 0x32, 0x5f, 0x31, 0x2f, 0x52, 0x65, 0x6c, 0x75, 0x3b, 0x74,
  0x69, 0x6e, 0x79, 0x5f, 0x64, 0x73, 0x5f, 0x63, 0x6e, 0x6e, 0x5f, 0x31,
  0x2f, 0x64, 0x73, 0x5f, 0x62, 0x6e, 0x5f, 0x32, 0x5f, 0x31, 0x2f, 0x62,
  0x61, 0x74, 0x63, 0x68, 0x6e, 0x6f, 0x72, 0x6d, 0x2f, 0x61, 0x64, 0x64,
  0x5f, 0x31, 0x3b, 0x74, 0x69, 0x6e, 0x79, 0x5f, 0x64, 0x73, 0x5f, 0x63,
  0x6e, 0x6e, 0x5f, 0x31, 0x2f, 0x64, 0x73, 0x5f, 0x63, 0x6f, 0x6e, 0x76,
  0x5f, 0x32, 0x5f, 0x31, 0x2f, 0x53, 0x71, 0x75, 0x65, 0x65, 0x7a, 0x65,
  0x3b, 0x74, 0x69, 0x6e, 0x79, 0x5f, 0x64, 0x73, 0x5f, 0x63, 0x6e, 0x6e,
  0x5f, 0x31, 0x2f, 0x64, 0x73, 0x5f, 0x62, 0x6e, 0x5f, 0x32, 0x5f, 0x31,
  0x2f, 0x62, 0x61, 0x74, 0x63, 0x68, 0x6e, 0x6f, 0x72, 0x6d, 0x2f, 0x6d,
  0x75, 0x6c, 0x5f, 0x31, 0x3b, 0x74, 0x69, 0x6e, 0x79, 0x5f, 0x64, 0x73,
  0x5f, 0x63, 0x6e, 0x6e, 0x5f, 0x31, 0x2f, 0x64, 0x73, 0x5f, 0x62, 0x6e,
  0x5f, 0x32, 0x5f, 0x31, 0x2f, 0x62, 0x61, 0x74, 0x63, 0x68, 0x6e, 0x6f,
  0x72, 0x6d, 0x2f, 0x6d, 0x75, 0x6c, 0x3b, 0x74, 0x69, 0x6e, 0x79, 0x5f,
  0x64, 0x73, 0x5f, 0x63, 0x6e, 0x6e, 0x5f, 0x31, 0x2f, 0x64, 0x73, 0x5f,
  0x62, 0x6e, 0x5f, 0x32, 0x5f, 0x31, 0x2f, 0x62, 0x61, 0x74, 0x63, 0x68,
  0x6e, 0x6f, 0x72, 0x6d, 0x2f, 0x73, 0x75, 0x62, 0x3b, 0x74, 0x69, 0x6e,
  0x79, 0x5f, 0x64, 0x73, 0x5f, 0x63, 0x6e, 0x6e, 0x5f, 0x31, 0x2f, 0x64,
  0x73, 0x5f, 0x63, 0x6f, 0x6e, 0x76, 0x5f, 0x32, 0x5f, 0x31, 0x2f, 0x73,
  0x65, 0x70, 0x61, 0x72, 0x61, 0x62, 0x6c, 0x65, 0x5f, 0x63, 0x6f, 0x6e,
  0x76, 0x32, 0x64, 0x00, 0x04, 0x00, 0x00, 0x00, 0x01, 0x00, 0x00, 0x00,
  0x01, 0x00, 0x00, 0x00, 0x40, 0x00, 0x00, 0x00, 0x20, 0x00, 0x00, 0x00,
  0xba, 0xeb, 0xff, 0xff, 0x00, 0x00, 0x00, 0x01, 0x14, 0x00, 0x00, 0x00,
  0x34, 0x00, 0x00, 0x00, 0x16, 0x00, 0x00, 0x00, 0x00, 0x00, 0x00, 0x09,
  0x64, 0x00, 0x00, 0x00, 0xa4, 0xeb, 0xff, 0xff, 0x08, 0x00, 0x00, 0x00,
  0x14, 0x00, 0x00, 0x00, 0x01, 0x00, 0x00, 0x00, 0xe5, 0xff, 0xff, 0xff,
  0xff, 0xff, 0xff, 0xff, 0x00, 0x00, 0x00, 0x00, 0x01, 0x00, 0x00, 0x00,
  0xa5, 0xcc, 0x28, 0x3d, 0x34, 0x00, 0x00, 0x00, 0x74, 0x69, 0x6e, 0x79,
  0x5f, 0x64, 0x73, 0x5f, 0x63, 0x6e, 0x6e, 0x5f, 0x31, 0x2f, 0x64, 0x73,
  0x5f, 0x63, 0x6f, 0x6e, 0x76, 0x5f, 0x32, 0x5f, 0x31, 0x2f, 0x73, 0x65,
  0x70, 0x61, 0x72, 0x61, 0x62, 0x6c, 0x65, 0x5f, 0x63, 0x6f, 0x6e, 0x76,
  0x32, 0x64, 0x2f, 0x64, 0x65, 0x70, 0x74, 0x68, 0x77, 0x69, 0x73, 0x65,
  0x00, 0x00, 0x00, 0x00, 0x04, 0x00, 0x00, 0x00, 0x01, 0x00, 0x00, 0x00,
  0x01, 0x00, 0x00, 0x00, 0x40, 0x00, 0x00, 0x00, 0x18, 0x00, 0x00, 0x00,
  0x4a, 0xec, 0xff, 0xff, 0x00, 0x00, 0x00, 0x01, 0x14, 0x00, 0x00, 0x00,
  0x34, 0x00, 0x00, 0x00, 0x15, 0x00, 0x00, 0x00, 0x00, 0x00, 0x00, 0x09,
  0x54, 0x00, 0x00, 0x00, 0x34, 0xec, 0xff, 0xff, 0x08, 0x00, 0x00, 0x00,
  0x14, 0x00, 0x00, 0x00, 0x01, 0x00, 0x00, 0x00, 0x80, 0xff, 0xff, 0xff,
  0xff, 0xff, 0xff, 0xff, 0x00, 0x00, 0x00, 0x00, 0x01, 0x00, 0x00, 0x00,
  0x8f, 0x1d, 0x8b, 0x3d, 0x24, 0x00, 0x00, 0x00, 0x74, 0x69, 0x6e, 0x79,
  0x5f, 0x64, 0x73, 0x5f, 0x63, 0x6e, 0x6e, 0x5f, 0x31, 0x2f, 0x61, 0x76,
  0x67, 0x5f, 0x70, 0x6f, 0x6f, 0x6c, 0x5f, 0x31, 0x5f, 0x31, 0x2f, 0x41,
  0x76, 0x67, 0x50, 0x6f, 0x6f, 0x6c, 0x31, 0x44, 0x00, 0x00, 0x00, 0x00,
  0x04, 0x00, 0x00, 0x00, 0x01, 0x00, 0x00, 0x00, 0x01, 0x00, 0x00, 0x00,
  0x40, 0x00, 0x00, 0x00, 0x18, 0x00, 0x00, 0x00, 0xca, 0xec, 0xff, 0xff,
  0x00, 0x00, 0x00, 0x01, 0x14, 0x00, 0x00, 0x00, 0x34, 0x00, 0x00, 0x00,
  0x14, 0x00, 0x00, 0x00, 0x00, 0x00, 0x00, 0x09, 0x34, 0x01, 0x00, 0x00,
  0xb4, 0xec, 0xff, 0xff, 0x08, 0x00, 0x00, 0x00, 0x14, 0x00, 0x00, 0x00,
  0x01, 0x00, 0x00, 0x00, 0x80, 0xff, 0xff, 0xff, 0xff, 0xff, 0xff, 0xff,
  0x00, 0x00, 0x00, 0x00, 0x01, 0x00, 0x00, 0x00, 0x8f, 0x1d, 0x8b, 0x3d,
  0x07, 0x01, 0x00, 0x00, 0x74, 0x69, 0x6e, 0x79, 0x5f, 0x64, 0x73, 0x5f,
  0x63, 0x6e, 0x6e, 0x5f, 0x31, 0x2f, 0x64, 0x73, 0x5f, 0x72, 0x65, 0x6c,
  0x75, 0x5f, 0x31, 0x5f, 0x31, 0x2f, 0x52, 0x65, 0x6c, 0x75, 0x3b, 0x74,
  0x69, 0x6e, 0x79, 0x5f, 0x64, 0x73, 0x5f, 0x63, 0x6e, 0x6e, 0x5f, 0x31,
  0x2f, 0x64, 0x73, 0x5f, 0x62, 0x6e, 0x5f, 0x31, 0x5f, 0x31, 0x2f, 0x62,
  0x61, 0x74, 0x63, 0x68, 0x6e, 0x6f, 0x72, 0x6d, 0x2f, 0x61, 0x64, 0x64,
  0x5f, 0x31, 0x3b, 0x74, 0x69, 0x6e, 0x79, 0x5f, 0x64, 0x73, 0x5f, 0x63,
  0x6e, 0x6e, 0x5f, 0x31, 0x2f, 0x64, 0x73, 0x5f, 0x63, 0x6f, 0x6e, 0x76,
  0x5f, 0x31, 0x5f, 0x31, 0x2f, 0x53, 0x71, 0x75, 0x65, 0x65, 0x7a, 0x65,
  0x3b, 0x74, 0x69, 0x6e, 0x79, 0x5f, 0x64, 0x73, 0x5f, 0x63, 0x6e, 0x6e,
  0x5f, 0x31, 0x2f, 0x64, 0x73, 0x5f, 0x62, 0x6e, 0x5f, 0x31, 0x5f, 0x31,
  0x2f, 0x62, 0x61, 0x74, 0x63, 0x68, 0x6e, 0x6f, 0x72, 0x6d, 0x2f, 0x6d,
  0x75, 0x6c, 0x5f, 0x31, 0x3b, 0x74, 0x69, 0x6e, 0x79, 0x5f, 0x64, 0x73,
  0x5f, 0x63, 0x6e, 0x6e, 0x5f, 0x31, 0x2f, 0x64, 0x73, 0x5f, 0x62, 0x6e,
  0x5f, 0x31, 0x5f, 0x31, 0x2f, 0x62, 0x61, 0x74, 0x63, 0x68, 0x6e, 0x6f,
  0x72, 0x6d, 0x2f, 0x6d, 0x75, 0x6c, 0x3b, 0x74, 0x69, 0x6e, 0x79, 0x5f,
  0x64, 0x73, 0x5f, 0x63, 0x6e, 0x6e, 0x5f, 0x31, 0x2f, 0x64, 0x73, 0x5f,
  0x62, 0x6e, 0x5f, 0x31, 0x5f, 0x31, 0x2f, 0x62, 0x61, 0x74, 0x63, 0x68,
  0x6e, 0x6f, 0x72, 0x6d, 0x2f, 0x73, 0x75, 0x62, 0x3b, 0x74, 0x69, 0x6e,
  0x79, 0x5f, 0x64, 0x73, 0x5f, 0x63, 0x6e, 0x6e, 0x5f, 0x31, 0x2f, 0x64,
  0x73, 0x5f, 0x63, 0x6f, 0x6e, 0x76, 0x5f, 0x31, 0x5f, 0x31, 0x2f, 0x73,
  0x65, 0x70, 0x61, 0x72, 0x61, 0x62, 0x6c, 0x65, 0x5f, 0x63, 0x6f, 0x6e,
  0x76, 0x32, 0x64, 0x00, 0x04, 0x00, 0x00, 0x00, 0x01, 0x00, 0x00, 0x00,
  0x01, 0x00, 0x00, 0x00, 0x80, 0x00, 0x00, 0x00, 0x18, 0x00, 0x00, 0x00,
  0x2a, 0xee, 0xff, 0xff, 0x00, 0x00, 0x00, 0x01, 0x14, 0x00, 0x00, 0x00,
  0x34, 0x00, 0x00, 0x00, 0x13, 0x00, 0x00, 0x00, 0x00, 0x00, 0x00, 0x09,
  0x64, 0x00, 0x00, 0x00, 0x14, 0xee, 0xff, 0xff, 0x08, 0x00, 0x00, 0x00,
  0x14, 0x00, 0x00, 0x00, 0x01, 0x00, 0x00, 0x00, 0x2a, 0x00, 0x00, 0x00,
  0x00, 0x00, 0x00, 0x00, 0x00, 0x00, 0x00, 0x00, 0x01, 0x00, 0x00, 0x00,
  0xab, 0x9d, 0x3d, 0x3d, 0x34, 0x00, 0x00, 0x00, 0x74, 0x69, 0x6e, 0x79,
  0x5f, 0x64, 0x73, 0x5f, 0x63, 0x6e, 0x6e, 0x5f, 0x31, 0x2f, 0x64, 0x73,
  0x5f, 0x63, 0x6f, 0x6e, 0x76, 0x5f, 0x31, 0x5f, 0x31, 0x2f, 0x73, 0x65,
  0x70, 0x61, 0x72, 0x61, 0x62, 0x6c, 0x65, 0x5f, 0x63, 0x6f, 0x6e, 0x76,
  0x32, 0x64, 0x2f, 0x64, 0x65, 0x70, 0x74, 0x68, 0x77, 0x69, 0x73, 0x65,
  0x00, 0x00, 0x00, 0x00, 0x04, 0x00, 0x00, 0x00, 0x01, 0x00, 0x00, 0x00,
  0x01, 0x00, 0x00, 0x00, 0x80, 0x00, 0x00, 0x00, 0x0c, 0x00, 0x00, 0x00,
  0xba, 0xee, 0xff, 0xff, 0x00, 0x00, 0x00, 0x01, 0x14, 0x00, 0x00, 0x00,
  0x34, 0x00, 0x00, 0x00, 0x12, 0x00, 0x00, 0x00, 0x00, 0x00, 0x00, 0x09,
  0x3c, 0x01, 0x00, 0x00, 0xa4, 0xee, 0xff, 0xff, 0x08, 0x00, 0x00, 0x00,
  0x14, 0x00, 0x00, 0x00, 0x01, 0x00, 0x00, 0x00, 0x80, 0xff, 0xff, 0xff,
  0xff, 0xff, 0xff, 0xff, 0x00, 0x00, 0x00, 0x00, 0x01, 0x00, 0x00, 0x00,
  0xc5, 0xf9, 0x4a, 0x3d, 0x0e, 0x01, 0x00, 0x00, 0x74, 0x69, 0x6e, 0x79,
  0x5f, 0x64, 0x73, 0x5f, 0x63, 0x6e, 0x6e, 0x5f, 0x31, 0x2f, 0x73, 0x74,
  0x65, 0x6d, 0x5f, 0x72, 0x65, 0x6c, 0x75, 0x5f, 0x31, 0x2f, 0x52, 0x65,
  0x6c, 0x75, 0x3b, 0x74, 0x69, 0x6e, 0x79, 0x5f, 0x64, 0x73, 0x5f, 0x63,
  0x6e, 0x6e, 0x5f, 0x31, 0x2f, 0x73, 0x74, 0x65, 0x6d, 0x5f, 0x62, 0x6e,
  0x5f, 0x31, 0x2f, 0x62, 0x61, 0x74, 0x63, 0x68, 0x6e, 0x6f, 0x72, 0x6d,
  0x2f, 0x61, 0x64, 0x64, 0x5f, 0x31, 0x3b, 0x74, 0x69, 0x6e, 0x79, 0x5f,
  0x64, 0x73, 0x5f, 0x63, 0x6e, 0x6e, 0x5f, 0x31, 0x2f, 0x73, 0x74, 0x65,
  0x6d, 0x5f, 0x63, 0x6f, 0x6e, 0x76, 0x5f, 0x31, 0x2f, 0x63, 0x6f, 0x6e,
  0x76, 0x6f, 0x6c, 0x75, 0x74, 0x69, 0x6f, 0x6e, 0x2f, 0x53, 0x71, 0x75,
  0x65, 0x65, 0x7a, 0x65, 0x3b, 0x74, 0x69, 0x6e, 0x79, 0x5f, 0x64, 0x73,
  0x5f, 0x63, 0x6e, 0x6e, 0x5f, 0x31, 0x2f, 0x73, 0x74, 0x65, 0x6d, 0x5f,
  0x62, 0x6e, 0x5f, 0x31, 0x2f, 0x62, 0x61, 0x74, 0x63, 0x68, 0x6e, 0x6f,
  0x72, 0x6d, 0x2f, 0x6d, 0x75, 0x6c, 0x5f, 0x31, 0x3b, 0x74, 0x69, 0x6e,
  0x79, 0x5f, 0x64, 0x73, 0x5f, 0x63, 0x6e, 0x6e, 0x5f, 0x31, 0x2f, 0x73,
  0x74, 0x65, 0x6d, 0x5f, 0x62, 0x6e, 0x5f, 0x31, 0x2f, 0x62, 0x61, 0x74,
  0x63, 0x68, 0x6e, 0x6f, 0x72, 0x6d, 0x2f, 0x6d, 0x75, 0x6c, 0x3b, 0x74,
  0x69, 0x6e, 0x79, 0x5f, 0x64, 0x73, 0x5f, 0x63, 0x6e, 0x6e, 0x5f, 0x31,
  0x2f, 0x73, 0x74, 0x65, 0x6d, 0x5f, 0x62, 0x6e, 0x5f, 0x31, 0x2f, 0x62,
  0x61, 0x74, 0x63, 0x68, 0x6e, 0x6f, 0x72, 0x6d, 0x2f, 0x73, 0x75, 0x62,
  0x3b, 0x74, 0x69, 0x6e, 0x79, 0x5f, 0x64, 0x73, 0x5f, 0x63, 0x6e, 0x6e,
  0x5f, 0x31, 0x2f, 0x73, 0x74, 0x65, 0x6d, 0x5f, 0x63, 0x6f, 0x6e, 0x76,
  0x5f, 0x31, 0x2f, 0x63, 0x6f, 0x6e, 0x76, 0x6f, 0x6c, 0x75, 0x74, 0x69,
  0x6f, 0x6e, 0x00, 0x00, 0x04, 0x00, 0x00, 0x00, 0x01, 0x00, 0x00, 0x00,
  0x01, 0x00, 0x00, 0x00, 0x80, 0x00, 0x00, 0x00, 0x0c, 0x00, 0x00, 0x00,
  0x22, 0xf0, 0xff, 0xff, 0x00, 0x00, 0x00, 0x01, 0x14, 0x00, 0x00, 0x00,
  0x30, 0x00, 0x00, 0x00, 0x11, 0x00, 0x00, 0x00, 0x00, 0x00, 0x00, 0x09,
  0x5c, 0x00, 0x00, 0x00, 0x0c, 0xf0, 0xff, 0xff, 0x08, 0x00, 0x00, 0x00,
  0x10, 0x00, 0x00, 0x00, 0x01, 0x00, 0x00, 0x00, 0x0b, 0x00, 0x00, 0x00,
  0x00, 0x00, 0x00, 0x00, 0x01, 0x00, 0x00, 0x00, 0x1a, 0x52, 0x17, 0x3e,
  0x31, 0x00, 0x00, 0x00, 0x74, 0x69, 0x6e, 0x79, 0x5f, 0x64, 0x73, 0x5f,
  0x63, 0x6e, 0x6e, 0x5f, 0x31, 0x2f, 0x73, 0x74, 0x65, 0x6d, 0x5f, 0x63,
  0x6f, 0x6e, 0x76, 0x5f, 0x31, 0x2f, 0x63, 0x6f, 0x6e, 0x76, 0x6f, 0x6c,
  0x75, 0x74, 0x69, 0x6f, 0x6e, 0x2f, 0x45, 0x78, 0x70, 0x61, 0x6e, 0x64,
  0x44, 0x69, 0x6d, 0x73, 0x31, 0x00, 0x00, 0x00, 0x04, 0x00, 0x00, 0x00,
  0x01, 0x00, 0x00, 0x00, 0x01, 0x00, 0x00, 0x00, 0x80, 0x00, 0x00, 0x00,
  0x06, 0x00, 0x00, 0x00, 0xaa, 0xf0, 0xff, 0xff, 0x00, 0x00, 0x00, 0x01,
  0x14, 0x00, 0x00, 0x00, 0xb8, 0x00, 0x00, 0x00, 0x10, 0x00, 0x00, 0x00,
  0x00, 0x00, 0x00, 0x09, 0xc4, 0x00, 0x00, 0x00, 0x94, 0xf0, 0xff, 0xff,
  0x08, 0x00, 0x00, 0x00, 0x6c, 0x00, 0x00, 0x00, 0x0c, 0x00, 0x00, 0x00,
  0x00, 0x00, 0x00, 0x00, 0x00, 0x00, 0x00, 0x00, 0x00, 0x00, 0x00, 0x00,
  0x00, 0x00, 0x00, 0x00, 0x00, 0x00, 0x00, 0x00, 0x00, 0x00, 0x00, 0x00,
  0x00, 0x00, 0x00, 0x00, 0x00, 0x00, 0x00, 0x00, 0x00, 0x00, 0x00, 0x00,
  0x00, 0x00, 0x00, 0x00, 0x00, 0x00, 0x00, 0x00, 0x00, 0x00, 0x00, 0x00,
  0x00, 0x00, 0x00, 0x00, 0x00, 0x00, 0x00, 0x00, 0x00, 0x00, 0x00, 0x00,
  0x00, 0x00, 0x00, 0x00, 0x00, 0x00, 0x00, 0x00, 0x00, 0x00, 0x00, 0x00,
  0x00, 0x00, 0x00, 0x00, 0x00, 0x00, 0x00, 0x00, 0x00, 0x00, 0x00, 0x00,
  0x00, 0x00, 0x00, 0x00, 0x00, 0x00, 0x00, 0x00, 0x00, 0x00, 0x00, 0x00,
  0x00, 0x00, 0x00, 0x00, 0x0c, 0x00, 0x00, 0x00, 0x8f, 0x3d, 0x83, 0x3b,
  0xf0, 0x8e, 0x4e, 0x3b, 0x49, 0x97, 0x3c, 0x3b, 0x7b, 0x1b, 0x3e, 0x3b,
  0xc3, 0x8d, 0x8c, 0x3b, 0x43, 0x64, 0x3b, 0x3b, 0x96, 0x93, 0x71, 0x3b,
  0x15, 0x45, 0x83, 0x3b, 0xe4, 0x5b, 0x3f, 0x3b, 0x6b, 0x10, 0x58, 0x3b,
  0x35, 0x47, 0x34, 0x3b, 0x66, 0xa7, 0x25, 0x3b, 0x13, 0x00, 0x00, 0x00,
  0x74, 0x66, 0x6c, 0x2e, 0x70, 0x73, 0x65, 0x75, 0x64, 0x6f, 0x5f, 0x71,
  0x63, 0x6f, 0x6e, 0x73, 0x74, 0x31, 0x31, 0x00, 0x04, 0x00, 0x00, 0x00,
  0x0c, 0x00, 0x00, 0x00, 0x01, 0x00, 0x00, 0x00, 0x03, 0x00, 0x00, 0x00,
  0x06, 0x00, 0x00, 0x00, 0x9a, 0xf1, 0xff, 0xff, 0x00, 0x00, 0x00, 0x01,
  0x14, 0x00, 0x00, 0x00, 0xb8, 0x00, 0x00, 0x00, 0x0f, 0x00, 0x00, 0x00,
  0x00, 0x00, 0x00, 0x02, 0xc4, 0x00, 0x00, 0x00, 0x84, 0xf1, 0xff, 0xff,
  0x08, 0x00, 0x00, 0x00, 0x6c, 0x00, 0x00, 0x00, 0x0c, 0x00, 0x00, 0x00,
  0x00, 0x00, 0x00, 0x00, 0x00, 0x00, 0x00, 0x00, 0x00, 0x00, 0x00, 0x00,
  0x00, 0x00, 0x00, 0x00, 0x00, 0x00, 0x00, 0x00, 0x00, 0x00, 0x00, 0x00,
  0x00, 0x00, 0x00, 0x00, 0x00, 0x00, 0x00, 0x00, 0x00, 0x00, 0x00, 0x00,
  0x00, 0x00, 0x00, 0x00, 0x00, 0x00, 0x00, 0x00, 0x00, 0x00, 0x00, 0x00,
  0x00, 0x00, 0x00, 0x00, 0x00, 0x00, 0x00, 0x00, 0x00, 0x00, 0x00, 0x00,
  0x00, 0x00, 0x00, 0x00, 0x00, 0x00, 0x00, 0x00, 0x00, 0x00, 0x00, 0x00,
  0x00, 0x00, 0x00, 0x00, 0x00, 0x00, 0x00, 0x00, 0x00, 0x00, 0x00, 0x00,
  0x00, 0x00, 0x00, 0x00, 0x00, 0x00, 0x00, 0x00, 0x00, 0x00, 0x00, 0x00,
  0x00, 0x00, 0x00, 0x00, 0x0c, 0x00, 0x00, 0x00, 0xcd, 0x26, 0x1b, 0x3a,
  0x1d, 0x31, 0xf4, 0x39, 0x6f, 0xf3, 0xde, 0x39, 0x5b, 0xbe, 0xe0, 0x39,
  0x63, 0x29, 0x26, 0x3a, 0x79, 0x88, 0xdd, 0x39, 0x87, 0xcb, 0x0e, 0x3a,
  0xb2, 0x2f, 0x1b, 0x3a, 0x25, 0x39, 0xe2, 0x39, 0xf5, 0x6d, 0xff, 0x39,
  0xa3, 0x1f, 0xd5, 0x39, 0xbb, 0xd5, 0xc3, 0x39, 0x13, 0x00, 0x00, 0x00,
  0x74, 0x66, 0x6c, 0x2e, 0x70, 0x73, 0x65, 0x75, 0x64, 0x6f, 0x5f, 0x71,
  0x63, 0x6f, 0x6e, 0x73, 0x74, 0x31, 0x30, 0x00, 0x01, 0x00, 0x00, 0x00,
  0x0c, 0x00, 0x00, 0x00, 0x7e, 0xf2, 0xff, 0xff, 0x00, 0x00, 0x00, 0x01,
  0x14, 0x00, 0x00, 0x00, 0xbc, 0x00, 0x00, 0x00, 0x0e, 0x00, 0x00, 0x00,
  0x00, 0x00, 0x00, 0x09, 0xc8, 0x00, 0x00, 0x00, 0x22, 0xfb, 0xff, 0xff,
  0x03, 0x00, 0x00, 0x00, 0x08, 0x00, 0x00, 0x00, 0x6c, 0x00, 0x00, 0x00,
  0x0c, 0x00, 0x00, 0x00, 0x00, 0x00, 0x00, 0x00, 0x00, 0x00, 0x00, 0x00,
  0x00, 0x00, 0x00, 0x00, 0x00, 0x00, 0x00, 0x00, 0x00, 0x00, 0x00, 0x00,
  0x00, 0x00, 0x00, 0x00, 0x00, 0x00, 0x00, 0x00, 0x00, 0x00, 0x00, 0x00,
  0x00, 0x00, 0x00, 0x00, 0x00, 0x00, 0x00, 0x00, 0x00, 0x00, 0x00, 0x00,
  0x00, 0x00, 0x00, 0x00, 0x00, 0x00, 0x00, 0x00, 0x00, 0x00, 0x00, 0x00,
  0x00, 0x00, 0x00, 0x00, 0x00, 0x00, 0x00, 0x00, 0x00, 0x00, 0x00, 0x00,
  0x00, 0x00, 0x00, 0x00, 0x00, 0x00, 0x00, 0x00, 0x00, 0x00, 0x00, 0x00,
  0x00, 0x00, 0x00, 0x00, 0x00, 0x00, 0x00, 0x00, 0x00, 0x00, 0x00, 0x00,
  0x00, 0x00, 0x00, 0x00, 0x00, 0x00, 0x00, 0x00, 0x0c, 0x00, 0x00, 0x00,
  0xcc, 0x63, 0x3c, 0x3b, 0x62, 0x61, 0xef, 0x3a, 0xa4, 0xb3, 0xef, 0x3a,
  0x0b, 0xec, 0x16, 0x3b, 0x07, 0x16, 0x04, 0x3b, 0xe6, 0x2c, 0x0d, 0x3b,
  0xc6, 0x68, 0x2d, 0x3b, 0xde, 0xe6, 0xa4, 0x3a, 0x73, 0x5c, 0xe8, 0x3a,
  0x57, 0x40, 0x01, 0x3b, 0x5d, 0x8b, 0x1a, 0x3b, 0x91, 0xc9, 0x08, 0x3b,
  0x12, 0x00, 0x00, 0x00, 0x74, 0x66, 0x6c, 0x2e, 0x70, 0x73, 0x65, 0x75,
  0x64, 0x6f, 0x5f, 0x71, 0x63, 0x6f, 0x6e, 0x73, 0x74, 0x39, 0x00, 0x00,
  0x04, 0x00, 0x00, 0x00, 0x01, 0x00, 0x00, 0x00, 0x01, 0x00, 0x00, 0x00,
  0x05, 0x00, 0x00, 0x00, 0x0c, 0x00, 0x00, 0x00, 0x72, 0xf3, 0xff, 0xff,
  0x00, 0x00, 0x00, 0x01, 0x14, 0x00, 0x00, 0x00, 0xb4, 0x00, 0x00, 0x00,
  0x0d, 0x00, 0x00, 0x00, 0x00, 0x00, 0x00, 0x02, 0xc0, 0x00, 0x00, 0x00,
  0x5c, 0xf3, 0xff, 0xff, 0x08, 0x00, 0x00, 0x00, 0x68, 0x00, 0x00, 0x00,
  0x0c, 0x00, 0x00, 0x00, 0x00, 0x00, 0x00, 0x00, 0x00, 0x00, 0x00, 0x00,
  0x00, 0x00, 0x00, 0x00, 0x00, 0x00, 0x00, 0x00, 0x00, 0x00, 0x00, 0x00,
  0x00, 0x00, 0x00, 0x00, 0x00, 0x00, 0x00, 0x00, 0x00, 0x00, 0x00, 0x00,
  0x00, 0x00, 0x00, 0x00, 0x00, 0x00, 0x00, 0x00, 0x00, 0x00, 0x00, 0x00,
  0x00, 0x00, 0x00, 0x00, 0x00, 0x00, 0x00, 0x00, 0x00, 0x00, 0x00, 0x00,
  0x00, 0x00, 0x00, 0x00, 0x00, 0x00, 0x00, 0x00, 0x00, 0x00, 0x00, 0x00,
  0x00, 0x00, 0x00, 0x00, 0x00, 0x00, 0x00, 0x00, 0x00, 0x00, 0x00, 0x00,
  0x00, 0x00, 0x00, 0x00, 0x00, 0x00, 0x00, 0x00, 0x00, 0x00, 0x00, 0x00,
  0x00, 0x00, 0x00, 0x00, 0x0c, 0x00, 0x00, 0x00, 0x8d, 0x5e, 0x15, 0x39,
  0x65, 0xcc, 0xbd, 0x38, 0x9e, 0x0d, 0xbe, 0x38, 0x01, 0x53, 0xef, 0x38,
  0x81, 0x74, 0xd1, 0x38, 0x56, 0xde, 0xdf, 0x38, 0xdd, 0x7d, 0x09, 0x39,
  0x0f, 0xbf, 0x82, 0x38, 0xa7, 0x3b, 0xb8, 0x38, 0xbf, 0xf5, 0xcc, 0x38,
  0x80, 0x11, 0xf5, 0x38, 0x03, 0xe9, 0xd8, 0x38, 0x12, 0x00, 0x00, 0x00,
  0x74, 0x66, 0x6c, 0x2e, 0x70, 0x73, 0x65, 0x75, 0x64, 0x6f, 0x5f, 0x71,
  0x63, 0x6f, 0x6e, 0x73, 0x74, 0x38, 0x00, 0x00, 0x01, 0x00, 0x00, 0x00,
  0x0c, 0x00, 0x00, 0x00, 0x52, 0xf4, 0xff, 0xff, 0x00, 0x00, 0x00, 0x01,
  0x14, 0x00, 0x00, 0x00, 0x48, 0x01, 0x00, 0x00, 0x0c, 0x00, 0x00, 0x00,
  0x00, 0x00, 0x00, 0x09, 0x54, 0x01, 0x00, 0x00, 0x3c, 0xf4, 0xff, 0xff,
  0x08, 0x00, 0x00, 0x00, 0xcc, 0x00, 0x00, 0x00, 0x18, 0x00, 0x00, 0x00,
  0x00, 0x00, 0x00, 0x00, 0x00, 0x00, 0x00, 0x00, 0x00, 0x00, 0x00, 0x00,
  0x00, 0x00, 0x00, 0x00, 0x00, 0x00, 0x00, 0x00, 0x00, 0x00, 0x00, 0x00,
  0x00, 0x00, 0x00, 0x00, 0x00, 0x00, 0x00, 0x00, 0x00, 0x00, 0x00, 0x00,
  0x00, 0x00, 0x00, 0x00, 0x00, 0x00, 0x00, 0x00, 0x00, 0x00, 0x00, 0x00,
  0x00, 0x00, 0x00, 0x00, 0x00, 0x00, 0x00, 0x00, 0x00, 0x00, 0x00, 0x00,
  0x00, 0x00, 0x00, 0x00, 0x00, 0x00, 0x00, 0x00, 0x00, 0x00, 0x00, 0x00,
  0x00, 0x00, 0x00, 0x00, 0x00, 0x00, 0x00, 0x00, 0x00, 0x00, 0x00, 0x00,
  0x00, 0x00, 0x00, 0x00, 0x00, 0x00, 0x00, 0x00, 0x00, 0x00, 0x00, 0x00,
  0x00, 0x00, 0x00, 0x00, 0x00, 0x00, 0x00, 0x00, 0x00, 0x00, 0x00, 0x00,
  0x00, 0x00, 0x00, 0x00, 0x00, 0x00, 0x00, 0x00, 0x00, 0x00, 0x00, 0x00,
  0x00, 0x00, 0x00, 0x00, 0x00, 0x00, 0x00, 0x00, 0x00, 0x00, 0x00, 0x00,
  0x00, 0x00, 0x00, 0x00, 0x00, 0x00, 0x00, 0x00, 0x00, 0x00, 0x00, 0x00,
  0x00, 0x00, 0x00, 0x00, 0x00, 0x00, 0x00, 0x00, 0x00, 0x00, 0x00, 0x00,
  0x00, 0x00, 0x00, 0x00, 0x00, 0x00, 0x00, 0x00, 0x00, 0x00, 0x00, 0x00,
  0x00, 0x00, 0x00, 0x00, 0x00, 0x00, 0x00, 0x00, 0x00, 0x00, 0x00, 0x00,
  0x00, 0x00, 0x00, 0x00, 0x00, 0x00, 0x00, 0x00, 0x00, 0x00, 0x00, 0x00,
  0x00, 0x00, 0x00, 0x00, 0x18, 0x00, 0x00, 0x00, 0x2f, 0x57, 0xc2, 0x3c,
  0xa8, 0x54, 0x50, 0x3c, 0x15, 0x0c, 0xb2, 0x3c, 0x82, 0xbe, 0x81, 0x3c,
  0xab, 0x8b, 0xa5, 0x3c, 0x43, 0x12, 0xda, 0x3c, 0xfe, 0xf7, 0xbc, 0x3c,
  0x2b, 0x54, 0x41, 0x3c, 0xbd, 0xc9, 0xb3, 0x3c, 0x2c, 0x34, 0x82, 0x3c,
  0x65, 0xc7, 0x9a, 0x3c, 0xa3, 0xb3, 0xd4, 0x3c, 0xe1, 0x2e, 0xa1, 0x3c,
  0x31, 0xb1, 0x9e, 0x3c, 0x74, 0x02, 0x75, 0x3c, 0xa7, 0x08, 0x7f, 0x3c,
  0xb9, 0x1d, 0xc1, 0x3c, 0x38, 0xb9, 0xad, 0x3c, 0xd7, 0x35, 0xe3, 0x3c,
  0x90, 0xe3, 0x78, 0x3c, 0x78, 0x29, 0xb8, 0x3c, 0xc6, 0x6d, 0xc4, 0x3c,
  0x39, 0x89, 0x8c, 0x3c, 0xfb, 0xa1, 0x83, 0x3c, 0x12, 0x00, 0x00, 0x00,
  0x74, 0x66, 0x6c, 0x2e, 0x70, 0x73, 0x65, 0x75, 0x64, 0x6f, 0x5f, 0x71,
  0x63, 0x6f, 0x6e, 0x73, 0x74, 0x37, 0x00, 0x00, 0x04, 0x00, 0x00, 0x00,
  0x18, 0x00, 0x00, 0x00, 0x01, 0x00, 0x00, 0x00, 0x01, 0x00, 0x00, 0x00,
  0x0c, 0x00, 0x00, 0x00, 0xd2, 0xf5, 0xff, 0xff, 0x00, 0x00, 0x00, 0x01,
  0x14, 0x00, 0x00, 0x00, 0x44, 0x01, 0x00, 0x00, 0x0b, 0x00, 0x00, 0x00,
  0x00, 0x00, 0x00, 0x02, 0x50, 0x01, 0x00, 0x00, 0xbc, 0xf5, 0xff, 0xff,
  0x08, 0x00, 0x00, 0x00, 0xc8, 0x00, 0x00, 0x00, 0x18, 0x00, 0x00, 0x00,
  0x00, 0x00, 0x00, 0x00, 0x00, 0x00, 0x00, 0x00, 0x00, 0x00, 0x00, 0x00,
  0x00, 0x00, 0x00, 0x00, 0x00, 0x00, 0x00, 0x00, 0x00, 0x00, 0x00, 0x00,
  0x00, 0x00, 0x00, 0x00, 0x00, 0x00, 0x00, 0x00, 0x00, 0x00, 0x00, 0x00,
  0x00, 0x00, 0x00, 0x00, 0x00, 0x00, 0x00, 0x00, 0x00, 0x00, 0x00, 0x00,
  0x00, 0x00, 0x00, 0x00, 0x00, 0x00, 0x00, 0x00, 0x00, 0x00, 0x00, 0x00,
  0x00, 0x00, 0x00, 0x00, 0x00, 0x00, 0x00, 0x00, 0x00, 0x00, 0x00, 0x00,
  0x00, 0x00, 0x00, 0x00, 0x00, 0x00, 0x00, 0x00, 0x00, 0x00, 0x00, 0x00,
  0x00, 0x00, 0x00, 0x00, 0x00, 0x00, 0x00, 0x00, 0x00, 0x00, 0x00, 0x00,
  0x00, 0x00, 0x00, 0x00, 0x00, 0x00, 0x00, 0x00, 0x00, 0x00, 0x00, 0x00,
  0x00, 0x00, 0x00, 0x00, 0x00, 0x00, 0x00, 0x00, 0x00, 0x00, 0x00, 0x00,
  0x00, 0x00, 0x00, 0x00, 0x00, 0x00, 0x00, 0x00, 0x00, 0x00, 0x00, 0x00,
  0x00, 0x00, 0x00, 0x00, 0x00, 0x00, 0x00, 0x00, 0x00, 0x00, 0x00, 0x00,
  0x00, 0x00, 0x00, 0x00, 0x00, 0x00, 0x00, 0x00, 0x00, 0x00, 0x00, 0x00,
  0x00, 0x00, 0x00, 0x00, 0x00, 0x00, 0x00, 0x00, 0x00, 0x00, 0x00, 0x00,
  0x00, 0x00, 0x00, 0x00, 0x00, 0x00, 0x00, 0x00, 0x00, 0x00, 0x00, 0x00,
  0x00, 0x00, 0x00, 0x00, 0x00, 0x00, 0x00, 0x00, 0x00, 0x00, 0x00, 0x00,
  0x18, 0x00, 0x00, 0x00, 0x0f, 0xf2, 0x8f, 0x3a, 0xcf, 0x4e, 0x1a, 0x3a,
  0x94, 0xe0, 0x83, 0x3a, 0x1d, 0x33, 0x40, 0x3a, 0x25, 0x3c, 0x75, 0x3a,
  0xca, 0x85, 0xa1, 0x3a, 0x79, 0xf7, 0x8b, 0x3a, 0x36, 0x32, 0x0f, 0x3a,
  0xab, 0x2a, 0x85, 0x3a, 0x6b, 0xe1, 0x40, 0x3a, 0x12, 0x49, 0x65, 0x3a,
  0xa0, 0x8b, 0x9d, 0x3a, 0xc3, 0xc5, 0x6e, 0x3a, 0x1c, 0x15, 0x6b, 0x3a,
  0xb6, 0x79, 0x35, 0x3a, 0x76, 0xe6, 0x3c, 0x3a, 0xe2, 0x09, 0x8f, 0x3a,
  0xbd, 0xac, 0x80, 0x3a, 0xb0, 0x4a, 0xa8, 0x3a, 0x4b, 0x59, 0x38, 0x3a,
  0x0a, 0x68, 0x88, 0x3a, 0x06, 0x7e, 0x91, 0x3a, 0xba, 0x2f, 0x50, 0x3a,
  0x51, 0xff, 0x42, 0x3a, 0x12, 0x00, 0x00, 0x00, 0x74, 0x66, 0x6c, 0x2e,
  0x70, 0x73, 0x65, 0x75, 0x64, 0x6f, 0x5f, 0x71, 0x63, 0x6f, 0x6e, 0x73,
  0x74, 0x36, 0x00, 0x00, 0x01, 0x00, 0x00, 0x00, 0x18, 0x00, 0x00, 0x00,
  0x00, 0x00, 0x16, 0x00, 0x1e, 0x00, 0x18, 0x00, 0x17, 0x00, 0x10, 0x00,
  0x0c, 0x00, 0x08, 0x00, 0x00, 0x00, 0x00, 0x00, 0x00, 0x00, 0x07, 0x00,
  0x16, 0x00, 0x00, 0x00, 0x00, 0x00, 0x00, 0x01, 0x28, 0x00, 0x00, 0x00,
  0x60, 0x01, 0x00, 0x00, 0x0a, 0x00, 0x00, 0x00, 0x00, 0x00, 0x00, 0x09,
  0x6c, 0x01, 0x00, 0x00, 0x00, 0x00, 0x12, 0x00, 0x10, 0x00, 0x00, 0x00,
  0x00, 0x00, 0x0c, 0x00, 0x08, 0x00, 0x00, 0x00, 0x00, 0x00, 0x04, 0x00,
  0x12, 0x00, 0x00, 0x00, 0x03, 0x00, 0x00, 0x00, 0x08, 0x00, 0x00, 0x00,
  0xcc, 0x00, 0x00, 0x00, 0x18, 0x00, 0x00, 0x00, 0x00, 0x00, 0x00, 0x00,
  0x00, 0x00, 0x00, 0x00, 0x00, 0x00, 0x00, 0x00, 0x00, 0x00, 0x00, 0x00,
  0x00, 0x00, 0x00, 0x00, 0x00, 0x00, 0x00, 0x00, 0x00, 0x00, 0x00, 0x00,
  0x00, 0x00, 0x00, 0x00, 0x00, 0x00, 0x00, 0x00, 0x00, 0x00, 0x00, 0x00,
  0x00, 0x00, 0x00, 0x00, 0x00, 0x00, 0x00, 0x00, 0x00, 0x00, 0x00, 0x00,
  0x00, 0x00, 0x00, 0x00, 0x00, 0x00, 0x00, 0x00, 0x00, 0x00, 0x00, 0x00,
  0x00, 0x00, 0x00, 0x00, 0x00, 0x00, 0x00, 0x00, 0x00, 0x00, 0x00, 0x00,
  0x00, 0x00, 0x00, 0x00, 0x00, 0x00, 0x00, 0x00, 0x00, 0x00, 0x00, 0x00,
  0x00, 0x00, 0x00, 0x00, 0x00, 0x00, 0x00, 0x00, 0x00, 0x00, 0x00, 0x00,
  0x00, 0x00, 0x00, 0x00, 0x00, 0x00, 0x00, 0x00, 0x00, 0x00, 0x00, 0x00,
  0x00, 0x00, 0x00, 0x00, 0x00, 0x00, 0x00, 0x00, 0x00, 0x00, 0x00, 0x00,
  0x00, 0x00, 0x00, 0x00, 0x00, 0x00, 0x00, 0x00, 0x00, 0x00, 0x00, 0x00,
  0x00, 0x00, 0x00, 0x00, 0x00, 0x00, 0x00, 0x00, 0x00, 0x00, 0x00, 0x00,
  0x00, 0x00, 0x00, 0x00, 0x00, 0x00, 0x00, 0x00, 0x00, 0x00, 0x00, 0x00,
  0x00, 0x00, 0x00, 0x00, 0x00, 0x00, 0x00, 0x00, 0x00, 0x00, 0x00, 0x00,
  0x00, 0x00, 0x00, 0x00, 0x00, 0x00, 0x00, 0x00, 0x00, 0x00, 0x00, 0x00,
  0x00, 0x00, 0x00, 0x00, 0x00, 0x00, 0x00, 0x00, 0x00, 0x00, 0x00, 0x00,
  0x18, 0x00, 0x00, 0x00, 0x2c, 0x50, 0xeb, 0x3a, 0x1d, 0xb4, 0xec, 0x3a,
  0x52, 0x8d, 0xb8, 0x3a, 0xbe, 0x0c, 0x15, 0x3b, 0xc4, 0xcf, 0xd8, 0x3a,
  0x2e, 0x5c, 0xa0, 0x3a, 0xe0, 0x7e, 0x03, 0x3b, 0x91, 0xd2, 0xe2, 0x3a,
  0x72, 0x6c, 0xce, 0x3a, 0x68, 0xc3, 0xdb, 0x3a, 0xda, 0x1c, 0xc6, 0x3a,
  0xb6, 0xb0, 0xe6, 0x3a, 0xc6, 0xad, 0x13, 0x3b, 0x6e, 0xde, 0xb9, 0x3a,
  0xbc, 0x0c, 0xa9, 0x3a, 0xbf, 0x4a, 0xc6, 0x3a, 0x5b, 0xe2, 0xf3, 0x3a,
  0x80, 0x89, 0x97, 0x3a, 0x85, 0x6b, 0xb2, 0x3a, 0xab, 0x6d, 0x09, 0x3b,
  0x98, 0xfa, 0xc1, 0x3a, 0x9d, 0x97, 0x9e, 0x3a, 0x30, 0x61, 0xfc, 0x3a,
  0xfc, 0xea, 0xa2, 0x3a, 0x12, 0x00, 0x00, 0x00, 0x74, 0x66, 0x6c, 0x2e,
  0x70, 0x73, 0x65, 0x75, 0x64, 0x6f, 0x5f, 0x71, 0x63, 0x6f, 0x6e, 0x73,
  0x74, 0x35, 0x00, 0x00, 0x04, 0x00, 0x00, 0x00, 0x01, 0x00, 0x00, 0x00,
  0x01, 0x00, 0x00, 0x00, 0x05, 0x00, 0x00, 0x00, 0x18, 0x00, 0x00, 0x00,
  0xf2, 0xf8, 0xff, 0xff, 0x00, 0x00, 0x00, 0x01, 0x14, 0x00, 0x00, 0x00,
  0x44, 0x01, 0x00, 0x00, 0x09, 0x00, 0x00, 0x00, 0x00, 0x00, 0x00, 0x02,
  0x50, 0x01, 0x00, 0x00, 0xdc, 0xf8, 0xff, 0xff, 0x08, 0x00, 0x00, 0x00,
  0xc8, 0x00, 0x00, 0x00, 0x18, 0x00, 0x00, 0x00, 0x00, 0x00, 0x00, 0x00,
  0x00, 0x00, 0x00, 0x00, 0x00, 0x00, 0x00, 0x00, 0x00, 0x00, 0x00, 0x00,
  0x00, 0x00, 0x00, 0x00, 0x00, 0x00, 0x00, 0x00, 0x00, 0x00, 0x00, 0x00,
  0x00, 0x00, 0x00, 0x00, 0x00, 0x00, 0x00, 0x00, 0x00, 0x00, 0x00, 0x00,
  0x00, 0x00, 0x00, 0x00, 0x00, 0x00, 0x00, 0x00, 0x00, 0x00, 0x00, 0x00,
  0x00, 0x00, 0x00, 0x00, 0x00, 0x00, 0x00, 0x00, 0x00, 0x00, 0x00, 0x00,
  0x00, 0x00, 0x00, 0x00, 0x00, 0x00, 0x00, 0x00, 0x00, 0x00, 0x00, 0x00,
  0x00, 0x00, 0x00, 0x00, 0x00, 0x00, 0x00, 0x00, 0x00, 0x00, 0x00, 0x00,
  0x00, 0x00, 0x00, 0x00, 0x00, 0x00, 0x00, 0x00, 0x00, 0x00, 0x00, 0x00,
  0x00, 0x00, 0x00, 0x00, 0x00, 0x00, 0x00, 0x00, 0x00, 0x00, 0x00, 0x00,
  0x00, 0x00, 0x00, 0x00, 0x00, 0x00, 0x00, 0x00, 0x00, 0x00, 0x00, 0x00,
  0x00, 0x00, 0x00, 0x00, 0x00, 0x00, 0x00, 0x00, 0x00, 0x00, 0x00, 0x00,
  0x00, 0x00, 0x00, 0x00, 0x00, 0x00, 0x00, 0x00, 0x00, 0x00, 0x00, 0x00,
  0x00, 0x00, 0x00, 0x00, 0x00, 0x00, 0x00, 0x00, 0x00, 0x00, 0x00, 0x00,
  0x00, 0x00, 0x00, 0x00, 0x00, 0x00, 0x00, 0x00, 0x00, 0x00, 0x00, 0x00,
  0x00, 0x00, 0x00, 0x00, 0x00, 0x00, 0x00, 0x00, 0x00, 0x00, 0x00, 0x00,
  0x00, 0x00, 0x00, 0x00, 0x00, 0x00, 0x00, 0x00, 0x18, 0x00, 0x00, 0x00,
  0x67, 0xbf, 0xff, 0x38, 0x20, 0xa1, 0x00, 0x39, 0x15, 0x94, 0xc8, 0x38,
  0x42, 0xfe, 0x21, 0x39, 0xb0, 0xa3, 0xeb, 0x38, 0x22, 0x49, 0xae, 0x38,
  0x25, 0xea, 0x0e, 0x39, 0x0b, 0x85, 0xf6, 0x38, 0x6f, 0x59, 0xe0, 0x38,
  0xf3, 0xd8, 0xee, 0x38, 0x15, 0x51, 0xd7, 0x38, 0x2b, 0xb9, 0xfa, 0x38,
  0xcf, 0x80, 0x20, 0x39, 0x77, 0x02, 0xca, 0x38, 0xde, 0xba, 0xb7, 0x38,
  0xf6, 0x82, 0xd7, 0x38, 0x10, 0x88, 0x04, 0x39, 0x4f, 0xb2, 0xa4, 0x38,
  0xf6, 0xe9, 0xc1, 0x38, 0xd4, 0x5c, 0x15, 0x39, 0xed, 0xd2, 0xd2, 0x38,
  0x44, 0x5d, 0xac, 0x38, 0xe9, 0x25, 0x09, 0x39, 0xcd, 0x10, 0xb1, 0x38,
  0x12, 0x00, 0x00, 0x00, 0x74, 0x66, 0x6c, 0x2e, 0x70, 0x73, 0x65, 0x75,
  0x64, 0x6f, 0x5f, 0x71, 0x63, 0x6f, 0x6e, 0x73, 0x74, 0x34, 0x00, 0x00,
  0x01, 0x00, 0x00, 0x00, 0x18, 0x00, 0x00, 0x00, 0x62, 0xfa, 0xff, 0xff,
  0x00, 0x00, 0x00, 0x01, 0x14, 0x00, 0x00, 0x00, 0xa8, 0x01, 0x00, 0x00,
  0x08, 0x00, 0x00, 0x00, 0x00, 0x00, 0x00, 0x09, 0xb4, 0x01, 0x00, 0x00,
  0x4c, 0xfa, 0xff, 0xff, 0x08, 0x00, 0x00, 0x00, 0x0c, 0x01, 0x00, 0x00,
  0x20, 0x00, 0x00, 0x00, 0x00, 0x00, 0x00, 0x00, 0x00, 0x00, 0x00, 0x00,
  0x00, 0x00, 0x00, 0x00, 0x00, 0x00, 0x00, 0x00, 0x00, 0x00, 0x00, 0x00,
  0x00, 0x00, 0x00, 0x00, 0x00, 0x00, 0x00, 0x00, 0x00, 0x00, 0x00, 0x00,
  0x00, 0x00, 0x00, 0x00, 0x00, 0x00, 0x00, 0x00, 0x00, 0x00, 0x00, 0x00,
  0x00, 0x00, 0x00, 0x00, 0x00, 0x00, 0x00, 0x00, 0x00, 0x00, 0x00, 0x00,
  0x00, 0x00, 0x00, 0x00, 0x00, 0x00, 0x00, 0x00, 0x00, 0x00, 0x00, 0x00,
  0x00, 0x00, 0x00, 0x00, 0x00, 0x00, 0x00, 0x00, 0x00, 0x00, 0x00, 0x00,
  0x00, 0x00, 0x00, 0x00, 0x00, 0x00, 0x00, 0x00, 0x00, 0x00, 0x00, 0x00,
  0x00, 0x00, 0x00, 0x00, 0x00, 0x00, 0x00, 0x00, 0x00, 0x00, 0x00, 0x00,
  0x00, 0x00, 0x00, 0x00, 0x00, 0x00, 0x00, 0x00, 0x00, 0x00, 0x00, 0x00,
  0x00, 0x00, 0x00, 0x00, 0x00, 0x00, 0x00, 0x00, 0x00, 0x00, 0x00, 0x00,
  0x00, 0x00, 0x00, 0x00, 0x00, 0x00, 0x00, 0x00, 0x00, 0x00, 0x00, 0x00,
  0x00, 0x00, 0x00, 0x00, 0x00, 0x00, 0x00, 0x00, 0x00, 0x00, 0x00, 0x00,
  0x00, 0x00, 0x00, 0x00, 0x00, 0x00, 0x00, 0x00, 0x00, 0x00, 0x00, 0x00,
  0x00, 0x00, 0x00, 0x00, 0x00, 0x00, 0x00, 0x00, 0x00, 0x00, 0x00, 0x00,
  0x00, 0x00, 0x00, 0x00, 0x00, 0x00, 0x00, 0x00, 0x00, 0x00, 0x00, 0x00,
  0x00, 0x00, 0x00, 0x00, 0x00, 0x00, 0x00, 0x00, 0x00, 0x00, 0x00, 0x00,
  0x00, 0x00, 0x00, 0x00, 0x00, 0x00, 0x00, 0x00, 0x00, 0x00, 0x00, 0x00,
  0x00, 0x00, 0x00, 0x00, 0x00, 0x00, 0x00, 0x00, 0x00, 0x00, 0x00, 0x00,
  0x00, 0x00, 0x00, 0x00, 0x00, 0x00, 0x00, 0x00, 0x00, 0x00, 0x00, 0x00,
  0x00, 0x00, 0x00, 0x00, 0x00, 0x00, 0x00, 0x00, 0x00, 0x00, 0x00, 0x00,
  0x00, 0x00, 0x00, 0x00, 0x00, 0x00, 0x00, 0x00, 0x00, 0x00, 0x00, 0x00,
  0x20, 0x00, 0x00, 0x00, 0xe6, 0x1d, 0x4c, 0x3c, 0xf2, 0x3d, 0xcc, 0x3c,
  0x89, 0x0f, 0x5a, 0x3c, 0xa5, 0x83, 0x90, 0x3c, 0x88, 0x69, 0xf6, 0x3c,
  0x9d, 0xa1, 0x81, 0x3c, 0x35, 0xb3, 0xc0, 0x3c, 0x28, 0xc0, 0xff, 0x3b,
  0x6e, 0x7f, 0xeb, 0x3c, 0xc9, 0x64, 0x1b, 0x3d, 0xa3, 0x9e, 0xc0, 0x3c,
  0x44, 0xe3, 0x6a, 0x3c, 0xad, 0x64, 0x2f, 0x3c, 0x17, 0xe8, 0xc6, 0x3c,
  0xac, 0xdb, 0x12, 0x3d, 0xfd, 0x36, 0x04, 0x3d, 0x17, 0x29, 0xb0, 0x3c,
  0x52, 0xe1, 0xa9, 0x3c, 0x3b, 0x49, 0xb7, 0x3c, 0x30, 0xf6, 0x83, 0x3c,
  0x73, 0x4b, 0x3c, 0x3c, 0x6f, 0x30, 0x1f, 0x3d, 0x21, 0x21, 0x89, 0x3c,
  0x08, 0xd9, 0x79, 0x3c, 0x54, 0x7b, 0xf6, 0x3c, 0x6a, 0x54, 0xf4, 0x3c,
  0x28, 0x3c, 0x9c, 0x3c, 0x8c, 0x27, 0x85, 0x3c, 0x2f, 0x3f, 0xd0, 0x3c,
  0x96, 0x63, 0xa6, 0x3c, 0x17, 0x75, 0xf6, 0x3c, 0x73, 0x62, 0x8b, 0x3c,
  0x12, 0x00, 0x00, 0x00, 0x74, 0x66, 0x6c, 0x2e, 0x70, 0x73, 0x65, 0x75,
  0x64, 0x6f, 0x5f, 0x71, 0x63, 0x6f, 0x6e, 0x73, 0x74, 0x33, 0x00, 0x00,
  0x04, 0x00, 0x00, 0x00, 0x20, 0x00, 0x00, 0x00, 0x01, 0x00, 0x00, 0x00,
  0x01, 0x00, 0x00, 0x00, 0x18, 0x00, 0x00, 0x00, 0x42, 0xfc, 0xff, 0xff,
  0x00, 0x00, 0x00, 0x01, 0x14, 0x00, 0x00, 0x00, 0xa4, 0x01, 0x00, 0x00,
  0x07, 0x00, 0x00, 0x00, 0x00, 0x00, 0x00, 0x02, 0xb0, 0x01, 0x00, 0x00,
  0x2c, 0xfc, 0xff, 0xff, 0x08, 0x00, 0x00, 0x00, 0x08, 0x01, 0x00, 0x00,
  0x20, 0x00, 0x00, 0x00, 0x00, 0x00, 0x00, 0x00, 0x00, 0x00, 0x00, 0x00,
  0x00, 0x00, 0x00, 0x00, 0x00, 0x00, 0x00, 0x00, 0x00, 0x00, 0x00, 0x00,
  0x00, 0x00, 0x00, 0x00, 0x00, 0x00, 0x00, 0x00, 0x00, 0x00, 0x00, 0x00,
  0x00, 0x00, 0x00, 0x00, 0x00, 0x00, 0x00, 0x00, 0x00, 0x00, 0x00, 0x00,
  0x00, 0x00, 0x00, 0x00, 0x00, 0x00, 0x00, 0x00, 0x00, 0x00, 0x00, 0x00,
  0x00, 0x00, 0x00, 0x00, 0x00, 0x00, 0x00, 0x00, 0x00, 0x00, 0x00, 0x00,
  0x00, 0x00, 0x00, 0x00, 0x00, 0x00, 0x00, 0x00, 0x00, 0x00, 0x00, 0x00,
  0x00, 0x00, 0x00, 0x00, 0x00, 0x00, 0x00, 0x00, 0x00, 0x00, 0x00, 0x00,
  0x00, 0x00, 0x00, 0x00, 0x00, 0x00, 0x00, 0x00, 0x00, 0x00, 0x00, 0x00,
  0x00, 0x00, 0x00, 0x00, 0x00, 0x00, 0x00, 0x00, 0x00, 0x00, 0x00, 0x00,
  0x00, 0x00, 0x00, 0x00, 0x00, 0x00, 0x00, 0x00, 0x00, 0x00, 0x00, 0x00,
  0x00, 0x00, 0x00, 0x00, 0x00, 0x00, 0x00, 0x00, 0x00, 0x00, 0x00, 0x00,
  0x00, 0x00, 0x00, 0x00, 0x00, 0x00, 0x00, 0x00, 0x00, 0x00, 0x00, 0x00,
  0x00, 0x00, 0x00, 0x00, 0x00, 0x00, 0x00, 0x00, 0x00, 0x00, 0x00, 0x00,
  0x00, 0x00, 0x00, 0x00, 0x00, 0x00, 0x00, 0x00, 0x00, 0x00, 0x00, 0x00,
  0x00, 0x00, 0x00, 0x00, 0x00, 0x00, 0x00, 0x00, 0x00, 0x00, 0x00, 0x00,
  0x00, 0x00, 0x00, 0x00, 0x00, 0x00, 0x00, 0x00, 0x00, 0x00, 0x00, 0x00,
  0x00, 0x00, 0x00, 0x00, 0x00, 0x00, 0x00, 0x00, 0x00, 0x00, 0x00, 0x00,
  0x00, 0x00, 0x00, 0x00, 0x00, 0x00, 0x00, 0x00, 0x00, 0x00, 0x00, 0x00,
  0x00, 0x00, 0x00, 0x00, 0x00, 0x00, 0x00, 0x00, 0x00, 0x00, 0x00, 0x00,
  0x00, 0x00, 0x00, 0x00, 0x00, 0x00, 0x00, 0x00, 0x00, 0x00, 0x00, 0x00,
  0x00, 0x00, 0x00, 0x00, 0x00, 0x00, 0x00, 0x00, 0x20, 0x00, 0x00, 0x00,
  0xca, 0x96, 0x06, 0x3a, 0xec, 0xab, 0x86, 0x3a, 0x83, 0xc8, 0x0f, 0x3a,
  0xd5, 0x93, 0x3e, 0x3a, 0x3c, 0x7a, 0xa2, 0x3a, 0x5f, 0xf3, 0x2a, 0x3a,
  0x4c, 0x1f, 0x7e, 0x3a, 0x8c, 0xa2, 0xa8, 0x39, 0xe2, 0x47, 0x9b, 0x3a,
  0xb9, 0xec, 0xcc, 0x3a, 0x2b, 0x04, 0x7e, 0x3a, 0xe9, 0xe0, 0x1a, 0x3a,
  0x8e, 0x4c, 0xe7, 0x39, 0x50, 0x27, 0x83, 0x3a, 0x1d, 0xab, 0xc1, 0x3a,
  0x8e, 0x5b, 0xae, 0x3a, 0x93, 0x4f, 0x68, 0x3a, 0x56, 0x07, 0x60, 0x3a,
  0x26, 0xb5, 0x71, 0x3a, 0x19, 0x06, 0x2e, 0x3a, 0x12, 0x50, 0xf8, 0x39,
  0x14, 0xee, 0xd1, 0x3a, 0xb9, 0xd6, 0x34, 0x3a, 0x27, 0xbe, 0x24, 0x3a,
  0xf8, 0x85, 0xa2, 0x3a, 0xb6, 0x1a, 0xa1, 0x3a, 0xbe, 0x08, 0x4e, 0x3a,
  0xca, 0x98, 0x2f, 0x3a, 0xef, 0x4f, 0x89, 0x3a, 0xba, 0x6c, 0x5b, 0x3a,
  0xdb, 0x81, 0xa2, 0x3a, 0x10, 0xd0, 0x37, 0x3a, 0x12, 0x00, 0x00, 0x00,
  0x74, 0x66, 0x6c, 0x2e, 0x70, 0x73, 0x65, 0x75, 0x64, 0x6f, 0x5f, 0x71,
  0x63, 0x6f, 0x6e, 0x73, 0x74, 0x32, 0x00, 0x00, 0x01, 0x00, 0x00, 0x00,
  0x20, 0x00, 0x00, 0x00, 0x12, 0xfe, 0xff, 0xff, 0x00, 0x00, 0x00, 0x01,
  0x14, 0x00, 0x00, 0x00, 0x70, 0x00, 0x00, 0x00, 0x06, 0x00, 0x00, 0x00,
  0x00, 0x00, 0x00, 0x09, 0x7c, 0x00, 0x00, 0x00, 0xfc, 0xfd, 0xff, 0xff,
  0x08, 0x00, 0x00, 0x00, 0x3c, 0x00, 0x00, 0x00, 0x06, 0x00, 0x00, 0x00,
  0x00, 0x00, 0x00, 0x00, 0x00, 0x00, 0x00, 0x00, 0x00, 0x00, 0x00, 0x00,
  0x00, 0x00, 0x00, 0x00, 0x00, 0x00, 0x00, 0x00, 0x00, 0x00, 0x00, 0x00,
  0x00, 0x00, 0x00, 0x00, 0x00, 0x00, 0x00, 0x00, 0x00, 0x00, 0x00, 0x00,
  0x00, 0x00, 0x00, 0x00, 0x00, 0x00, 0x00, 0x00, 0x00, 0x00, 0x00, 0x00,
  0x00, 0x00, 0x00, 0x00, 0x06, 0x00, 0x00, 0x00, 0xc8, 0x41, 0xd0, 0x3b,
  0xe1, 0xe1, 0xe2, 0x3b, 0xc2, 0xc8, 0xd8, 0x3b, 0xe4, 0x69, 0xf3, 0x3b,
  0x3c, 0x0a, 0xb1, 0x3b, 0xc1, 0xe9, 0xc9, 0x3b, 0x12, 0x00, 0x00, 0x00,
  0x74, 0x66, 0x6c, 0x2e, 0x70, 0x73, 0x65, 0x75, 0x64, 0x6f, 0x5f, 0x71,
  0x63, 0x6f, 0x6e, 0x73, 0x74, 0x31, 0x00, 0x00, 0x02, 0x00, 0x00, 0x00,
  0x06, 0x00, 0x00, 0x00, 0x20, 0x00, 0x00, 0x00, 0xb2, 0xfe, 0xff, 0xff,
  0x00, 0x00, 0x00, 0x01, 0x14, 0x00, 0x00, 0x00, 0x6c, 0x00, 0x00, 0x00,
  0x05, 0x00, 0x00, 0x00, 0x00, 0x00, 0x00, 0x02, 0x78, 0x00, 0x00, 0x00,
  0x9c, 0xfe, 0xff, 0xff, 0x08, 0x00, 0x00, 0x00, 0x38, 0x00, 0x00, 0x00,
  0x06, 0x00, 0x00, 0x00, 0x00, 0x00, 0x00, 0x00, 0x00, 0x00, 0x00, 0x00,
  0x00, 0x00, 0x00, 0x00, 0x00, 0x00, 0x00, 0x00, 0x00, 0x00, 0x00, 0x00,
  0x00, 0x00, 0x00, 0x00, 0x00, 0x00, 0x00, 0x00, 0x00, 0x00, 0x00, 0x00,
  0x00, 0x00, 0x00, 0x00, 0x00, 0x00, 0x00, 0x00, 0x00, 0x00, 0x00, 0x00,
  0x00, 0x00, 0x00, 0x00, 0x06, 0x00, 0x00, 0x00, 0x46, 0x83, 0x04, 0x39,
  0x31, 0x5d, 0x10, 0x39, 0x4a, 0xf0, 0x09, 0x39, 0xff, 0xe1, 0x1a, 0x39,
  0x97, 0x4c, 0xe1, 0x38, 0xea, 0x79, 0x00, 0x39, 0x11, 0x00, 0x00, 0x00,
  0x74, 0x66, 0x6c, 0x2e, 0x70, 0x73, 0x65, 0x75, 0x64, 0x6f, 0x5f, 0x71,
  0x63, 0x6f, 0x6e, 0x73, 0x74, 0x00, 0x00, 0x00, 0x01, 0x00, 0x00, 0x00,
  0x06, 0x00, 0x00, 0x00, 0x4a, 0xff, 0xff, 0xff, 0x00, 0x00, 0x00, 0x01,
  0x14, 0x00, 0x00, 0x00, 0x14, 0x00, 0x00, 0x00, 0x04, 0x00, 0x00, 0x00,
  0x00, 0x00, 0x00, 0x02, 0x1c, 0x00, 0x00, 0x00, 0x8c, 0xff, 0xff, 0xff,
  0x0f, 0x00, 0x00, 0x00, 0x61, 0x72, 0x69, 0x74, 0x68, 0x2e, 0x63, 0x6f,
  0x6e, 0x73, 0x74, 0x61, 0x6e, 0x74, 0x32, 0x00, 0x00, 0x00, 0x00, 0x00,
  0x82, 0xff, 0xff, 0xff, 0x00, 0x00, 0x00, 0x01, 0x14, 0x00, 0x00, 0x00,
  0x14, 0x00, 0x00, 0x00, 0x03, 0x00, 0x00, 0x00, 0x00, 0x00, 0x00, 0x02,
  0x1c, 0x00, 0x00, 0x00, 0xc4, 0xff, 0xff, 0xff, 0x0f, 0x00, 0x00, 0x00,
  0x61, 0x72, 0x69, 0x74, 0x68, 0x2e, 0x63, 0x6f, 0x6e, 0x73, 0x74, 0x61,
  0x6e, 0x74, 0x31, 0x00, 0x01, 0x00, 0x00, 0x00, 0x03, 0x00, 0x00, 0x00,
  0xbe, 0xff, 0xff, 0xff, 0x00, 0x00, 0x00, 0x01, 0x18, 0x00, 0x00, 0x00,
  0x18, 0x00, 0x00, 0x00, 0x02, 0x00, 0x00, 0x00, 0x00, 0x00, 0x00, 0x02,
  0x20, 0x00, 0x00, 0x00, 0x04, 0x00, 0x04, 0x00, 0x04, 0x00, 0x00, 0x00,
  0x0e, 0x00, 0x00, 0x00, 0x61, 0x72, 0x69, 0x74, 0x68, 0x2e, 0x63, 0x6f,
  0x6e, 0x73, 0x74, 0x61, 0x6e, 0x74, 0x00, 0x00, 0x01, 0x00, 0x00, 0x00,
  0x04, 0x00, 0x00, 0x00, 0x00, 0x00, 0x16, 0x00, 0x1c, 0x00, 0x18, 0x00,
  0x17, 0x00, 0x10, 0x00, 0x0c, 0x00, 0x08, 0x00, 0x00, 0x00, 0x00, 0x00,
  0x00, 0x00, 0x07, 0x00, 0x16, 0x00, 0x00, 0x00, 0x00, 0x00, 0x00, 0x01,
  0x20, 0x00, 0x00, 0x00, 0x3c, 0x00, 0x00, 0x00, 0x01, 0x00, 0x00, 0x00,
  0x00, 0x00, 0x00, 0x09, 0x3c, 0x00, 0x00, 0x00, 0x0c, 0x00, 0x0c, 0x00,
  0x00, 0x00, 0x00, 0x00, 0x08, 0x00, 0x04, 0x00, 0x0c, 0x00, 0x00, 0x00,
  0x08, 0x00, 0x00, 0x00, 0x10, 0x00, 0x00, 0x00, 0x01, 0x00, 0x00, 0x00,
  0x0b, 0x00, 0x00, 0x00, 0x00, 0x00, 0x00, 0x00, 0x01, 0x00, 0x00, 0x00,
  0x1a, 0x52, 0x17, 0x3e, 0x06, 0x00, 0x00, 0x00, 0x69, 0x6e, 0x70, 0x75,
  0x74, 0x73, 0x00, 0x00, 0x03, 0x00, 0x00, 0x00, 0x01, 0x00, 0x00, 0x00,
  0x80, 0x00, 0x00, 0x00, 0x06, 0x00, 0x00, 0x00, 0x07, 0x00, 0x00, 0x00,
  0x94, 0x00, 0x00, 0x00, 0x74, 0x00, 0x00, 0x00, 0x54, 0x00, 0x00, 0x00,
  0x40, 0x00, 0x00, 0x00, 0x2c, 0x00, 0x00, 0x00, 0x18, 0x00, 0x00, 0x00,
  0x04, 0x00, 0x00, 0x00, 0xb0, 0xff, 0xff, 0xff, 0x19, 0x00, 0x00, 0x00,
  0x02, 0x00, 0x00, 0x00, 0x00, 0x00, 0x00, 0x19, 0xc0, 0xff, 0xff, 0xff,
  0x09, 0x00, 0x00, 0x00, 0x04, 0x00, 0x00, 0x00, 0x00, 0x00, 0x00, 0x09,
  0xd0, 0xff, 0xff, 0xff, 0x28, 0x00, 0x00, 0x00, 0x02, 0x00, 0x00, 0x00,
  0x00, 0x00, 0x00, 0x28, 0xe0, 0xff, 0xff, 0xff, 0x01, 0x00, 0x00, 0x00,
  0x02, 0x00, 0x00, 0x00, 0x00, 0x00, 0x00, 0x01, 0xf0, 0xff, 0xff, 0xff,
  0x04, 0x00, 0x00, 0x00, 0x03, 0x00, 0x00, 0x00, 0x00, 0x00, 0x00, 0x04,
  0x0c, 0x00, 0x10, 0x00, 0x0f, 0x00, 0x00, 0x00, 0x08, 0x00, 0x04, 0x00,
  0x0c, 0x00, 0x00, 0x00, 0x03, 0x00, 0x00, 0x00, 0x03, 0x00, 0x00, 0x00,
  0x00, 0x00, 0x00, 0x03, 0x0c, 0x00, 0x0c, 0x00, 0x0b, 0x00, 0x00, 0x00,
  0x00, 0x00, 0x04, 0x00, 0x0c, 0x00, 0x00, 0x00, 0x16, 0x00, 0x00, 0x00,
  0x00, 0x00, 0x00, 0x16,
};
const unsigned int g_tinyml_har_model_len = 10288;

#endif  // TINYML_HAR_MODEL_DATA_H_
